{
  "version": "1.0",
  "truncation": null,
  "padding": null,
  "added_tokens": [
    {
      "id": 0,
      "content": "<pad>",
      "single_word": false,
      "lstrip": false,
      "rstrip": false,
      "normalized": false,
      "special": true
    },
    {
      "id": 1,
      "content": "<bos>",
      "single_word": false,
      "lstrip": false,
      "rstrip": false,
      "normalized": false,
      "special": true
    },
    {
      "id": 2,
      "content": "<eos>",
      "single_word": false,
      "lstrip": false,
      "rstrip": false,
      "normalized": false,
      "special": true
    },
    {
      "id": 3,
      "content": "<unk>",
      "single_word": false,
      "lstrip": false,
      "rstrip": false,
      "normalized": false,
      "special": true
    }
  ],
  "normalizer": {
    "type": "Sequence",
    "normalizers": [
      {
        "type": "NFKC"
      }
    ]
  },
  "pre_tokenizer": {
    "type": "Split",
    "pattern": {
      "Regex": "[\\t\\n\\r]+"
    },
    "behavior": "Isolated",
    "invert": false
  },
  "post_processor": {
    "type": "TemplateProcessing",
    "single": [
      {
        "Sequence": {
          "id": "A",
          "type_id": 0
        }
      },
      {
        "SpecialToken": {
          "id": "<eos>",
          "type_id": 0
        }
      }
    ],
    "pair": [
      {
        "Sequence": {
          "id": "A",
          "type_id": 0
        }
      },
      {
        "SpecialToken": {
          "id": "<eos>",
          "type_id": 0
        }
      },
      {
        "Sequence": {
          "id": "B",
          "type_id": 0
        }
      },
      {
        "SpecialToken": {
          "id": "<eos>",
          "type_id": 0
        }
      }
    ],
    "special_tokens": {
      "<eos>": {
        "id": "<eos>",
        "ids": [
          2
        ],
        "tokens": [
          "<eos>"
        ]
      }
    }
  },
  "decoder": {
    "type": "BPEDecoder",
    "suffix": "</w>"
  },
  "model": {
    "type": "BPE",
    "dropout": null,
    "unk_token": "<unk>",
    "continuing_subword_prefix": "",
    "end_of_word_suffix": null,
    "fuse_unk": false,
    "byte_fallback": false,
    "ignore_merges": false,
    "vocab": {
      "<pad>": 0,
      "<bos>": 1,
      "<eos>": 2,
      "<unk>": 3,
      "\t": 4,
      "\n": 5,
      " ": 6,
      "!": 7,
      "#": 8,
      "(": 9,
      ")": 10,
      "*": 11,
      ",": 12,
      "-": 13,
      ".": 14,
      "/": 15,
      "0": 16,
      "1": 17,
      "2": 18,
      "3": 19,
      "4": 20,
      "5": 21,
      "6": 22,
      "7": 23,
      "8": 24,
      "9": 25,
      ":": 26,
      ";": 27,
      "=": 28,
      "A": 29,
      "B": 30,
      "C": 31,
      "D": 32,
      "E": 33,
      "F": 34,
      "G": 35,
      "J": 36,
      "K": 37,
      "L": 38,
      "M": 39,
      "T": 40,
      "W": 41,
      "X": 42,
      "[": 43,
      "]": 44,
      "^": 45,
      "_": 46,
      "`": 47,
      "a": 48,
      "b": 49,
      "c": 50,
      "d": 51,
      "e": 52,
      "f": 53,
      "g": 54,
      "i": 55,
      "k": 56,
      "l": 57,
      "m": 58,
      "n": 59,
      "o": 60,
      "p": 61,
      "q": 62,
      "r": 63,
      "s": 64,
      "t": 65,
      "u": 66,
      "v": 67,
      "w": 68,
      "x": 69,
      "|": 70,
      "~": 71,
      "16": 72,
      "cc": 73,
      "dd": 74,
      "ee": 75,
      "f#": 76,
      "8g": 77,
      "8a": 78,
      "8b": 79,
      " 4": 80,
      "JJ": 81,
      "8f": 82,
      "8dd": 83,
      "8cc": 84,
      "LL": 85,
      "1r": 86,
      "8ee": 87,
      "8r": 88,
      "B-": 89,
      "4r": 90,
      "4.": 91,
      "8.": 92,
      "8e": 93,
      "b-": 94,
      "2.": 95,
      "8d": 96,
      "gg": 97,
      "12": 98,
      "8gg": 99,
      "8A": 100,
      "4a": 101,
      "8G": 102,
      "32": 103,
      "4f": 104,
      "16a": 105,
      "4e": 106,
      "Jk": 107,
      "8c": 108,
      "4g": 109,
      "8ff#": 110,
      "16cc": 111,
      "16f": 112,
      "8B": 113,
      "8f#": 114,
      "4d": 115,
      "8F": 116,
      "4cc": 117,
      "4dd": 118,
      "4A": 119,
      "8aa": 120,
      "2r": 121,
      "16dd": 122,
      "8E": 123,
      "4G": 124,
      "16b": 125,
      "-L": 126,
      "*c": 127,
      "ef": 128,
      "lef": 129,
      "*clef": 130,
      "16ee": 131,
      "8cc#": 132,
      "4b": 133,
      "8D": 134,
      "*k": 135,
      "*k[": 136,
      "8aJ": 137,
      "4c": 138,
      "*-": 139,
      "8ddL": 140,
      "*M": 141,
      "-J": 142,
      "8ddJ": 143,
      "8aL": 144,
      "8ff": 145,
      "4F": 146,
      " 2": 147,
      "16g": 148,
      "16e": 149,
      "4B": 150,
      "8C": 151,
      "4ee": 152,
      "L ": 153,
      "==": 154,
      "c#": 155,
      "8bL": 156,
      "8gJ": 157,
      "4E": 158,
      "AA": 159,
      "8bJ": 160,
      "8eeL": 161,
      "16gg": 162,
      "4D": 163,
      "16r": 164,
      "*clefG": 165,
      "2.r": 166,
      "ff": 167,
      "*clefG2": 168,
      "e-": 169,
      "/4": 170,
      "16d": 171,
      "(L": 172,
      "8eeJ": 173,
      "|!": 174,
      ":|!": 175,
      "=:|!": 176,
      "4C": 177,
      "#J": 178,
      "8B-": 179,
      "8gL": 180,
      "#L": 181,
      "GG": 182,
      "8ccJ": 183,
      "8ccL": 184,
      "4gg": 185,
      "F#": 186,
      "8eJ": 187,
      ")J": 188,
      "- ": 189,
      "8AA": 190,
      "8ggL": 191,
      "a-": 192,
      "16B": 193,
      "8dJ": 194,
      "8ggJ": 195,
      "*v": 196,
      "8eL": 197,
      "4f#": 198,
      "*k[f#": 199,
      "4b-": 200,
      "2g": 201,
      "2d": 202,
      "J ": 203,
      "E-": 204,
      "16A": 205,
      "8b-": 206,
      "8ff#L": 207,
      " 4.": 208,
      "]L": 209,
      "8GG": 210,
      "16ff#": 211,
      "aa": 212,
      "16ff": 213,
      "8ff#J": 214,
      "16G": 215,
      "4B-": 216,
      "8dL": 217,
      "*p": 218,
      "ar": 219,
      "*par": 220,
      "*part": 221,
      "*M4": 222,
      "8BB": 223,
      "16c": 224,
      "16aa": 225,
      "- 4": 226,
      "*M4/4": 227,
      "8f#J": 228,
      "2a": 229,
      "8bb": 230,
      "16f#": 231,
      "*k[b-": 232,
      "|:": 233,
      "# ": 234,
      "16b-": 235,
      "KL": 236,
      "4AA": 237,
      "2cc": 238,
      " 1": 239,
      "16D": 240,
      "4ff": 241,
      "qq": 242,
      "[J": 243,
      "2A": 244,
      "2e": 245,
      "2f": 246,
      "8aaL": 247,
      "2c": 248,
      "16F": 249,
      "8cc#J": 250,
      "16cc#": 251,
      "8f#L": 252,
      "2G": 253,
      "8fJ": 254,
      "16E": 255,
      "4aa": 256,
      "*clefF": 257,
      "BB": 258,
      "*clefF4": 259,
      "4GG": 260,
      "ff#": 261,
      "8fL": 262,
      "# 4": 263,
      "16C": 264,
      "8BB-": 265,
      "4ff#": 266,
      "*^": 267,
      "=|": 268,
      "=||": 269,
      "*k[f#c#": 270,
      "8FF": 271,
      "-]": 272,
      "8cc#L": 273,
      "8qq": 274,
      "2dd": 275,
      "2D": 276,
      "8e-": 277,
      "#]": 278,
      "8aaJ": 279,
      "BB-": 280,
      "2F": 281,
      "*k[b-e-": 282,
      "4e-": 283,
      " 2.": 284,
      "-JJ": 285,
      "=:|!|:": 286,
      "(LL": 287,
      "8.dd": 288,
      "4cc#": 289,
      "*M2": 290,
      "8cJ": 291,
      "8EE": 292,
      "8.a": 293,
      "8b-J": 294,
      "-LL": 295,
      "4BB-": 296,
      "8cL": 297,
      "8ffL": 298,
      "16B-": 299,
      "8b-L": 300,
      "8DD": 301,
      "2C": 302,
      "8.cc": 303,
      ")JJ": 304,
      "*k[]": 305,
      "8ffJ": 306,
      "2b": 307,
      "4.g": 308,
      "#JJ": 309,
      "*M3": 310,
      "16AA": 311,
      "8bb-": 312,
      " 4a": 313,
      "8.b": 314,
      " 4d": 315,
      "8AJ": 316,
      "*s": 317,
      "*st": 318,
      " 4cc": 319,
      " 4A": 320,
      "4BB": 321,
      "2E": 322,
      "*k[f#]": 323,
      "8GJ": 324,
      "8.ee": 325,
      " 4g": 326,
      "8ee-": 327,
      "8ccc": 328,
      "8AL": 329,
      "aff": 330,
      "*staff": 331,
      "12cc": 332,
      "8.g": 333,
      "4.dd": 334,
      "4.a": 335,
      "8GL": 336,
      "16ccJJ": 337,
      "16ddJJ": 338,
      "/8": 339,
      " 4G": 340,
      "16aJJ": 341,
      " 4c": 342,
      "[ ": 343,
      "2ee": 344,
      "8c#": 345,
      "#LL": 346,
      "12b": 347,
      "8CC": 348,
      "8a-": 349,
      "8ddd": 350,
      "*k[b-e-a-": 351,
      "32e": 352,
      "16bb": 353,
      "*part1": 354,
      "*M3/4": 355,
      "12dd": 356,
      "4.cc": 357,
      "4FF": 358,
      "*k[f#c#]": 359,
      "2B": 360,
      "8F#": 361,
      "4F#": 362,
      " 8g": 363,
      "JJJ": 364,
      "16GG": 365,
      "16bJJ": 366,
      "4.d": 367,
      "1.": 368,
      " 4dd": 369,
      "2B-": 370,
      "16c#": 371,
      "LLL": 372,
      " 8d": 373,
      "16ddLL": 374,
      "12a": 375,
      "16aLL": 376,
      "16.": 377,
      "16gJJ": 378,
      "4c#": 379,
      "8E-": 380,
      "8.e": 381,
      "8BJ": 382,
      "4E-": 383,
      "2b-": 384,
      "16eeJJ": 385,
      "8.ddL": 386,
      "16ccLL": 387,
      "4ee-": 388,
      "16eJJ": 389,
      " 4b": 390,
      "!|:": 391,
      "=!|:": 392,
      "8DL": 393,
      "8DJ": 394,
      " 8cc": 395,
      "/2": 396,
      "16bLL": 397,
      "2AA": 398,
      "8A-": 399,
      "Jk ": 400,
      "4a-": 401,
      "12ee": 402,
      "*M2/4": 403,
      "32cc": 404,
      "4.b": 405,
      "*M6": 406,
      " 8a": 407,
      "1d": 408,
      "4.r": 409,
      "16F#": 410,
      "*k[b-]": 411,
      "*k[f#c#g": 412,
      "8BL": 413,
      "4DD": 414,
      "8e-J": 415,
      "8.aL": 416,
      "FF": 417,
      "8.gg": 418,
      "8g#": 419,
      "8B-J": 420,
      "4.e": 421,
      "8FJ": 422,
      "16eeLL": 423,
      "0r": 424,
      " 8c": 425,
      "2f#": 426,
      "8e-L": 427,
      "8.d": 428,
      " 4e": 429,
      "8FL": 430,
      "16ccc": 431,
      "1g": 432,
      "8B-L": 433,
      "8EJ": 434,
      "*M6/8": 435,
      "-[": 436,
      "4.ee": 437,
      "16bb-": 438,
      "12g": 439,
      " 8ee": 440,
      " 8gg": 441,
      "32r": 442,
      "16ddd": 443,
      " 4f": 444,
      "16ggJJ": 445,
      "8CL": 446,
      "16aJk": 447,
      "16gLL": 448,
      "4EE": 449,
      "16eLL": 450,
      "A-": 451,
      " 4ee": 452,
      "12e": 453,
      "16BB": 454,
      "4A-": 455,
      "nL": 456,
      "32b": 457,
      "2e-": 458,
      "*M2/2": 459,
      "1G": 460,
      "8bbL": 461,
      "8EL": 462,
      "*part2": 463,
      "16fJJ": 464,
      "1D": 465,
      "t(": 466,
      "16e-": 467,
      " 4B-": 468,
      " 8e": 469,
      " 4B": 470,
      "4bb": 471,
      " 8dd": 472,
      "*m": 473,
      "et(": 474,
      "*met(": 475,
      "16ddJk": 476,
      "4g#": 477,
      "2GG": 478,
      "]LL": 479,
      "8CJ": 480,
      "16dJJ": 481,
      "d-": 482,
      "16ee-": 483,
      "4.f": 484,
      "1c": 485,
      "EE": 486,
      "12gg": 487,
      "*met(c": 488,
      "1A": 489,
      " 8G": 490,
      "[JJ": 491,
      "16BB-": 492,
      "32dd": 493,
      "4CC": 494,
      "16ggLL": 495,
      " 6": 496,
      " 8A": 497,
      "16E-": 498,
      "8.eeL": 499,
      "1e": 500,
      "32ee": 501,
      "8.bL": 502,
      "1a": 503,
      "nJ": 504,
      "16bJk": 505,
      "8.f": 506,
      "*k[b-e-]": 507,
      "8ee-L": 508,
      "1C": 509,
      "#[": 510,
      "8.aa": 511,
      "2.g": 512,
      "4.c": 513,
      "16dLL": 514,
      " 8f": 515,
      "8ee-J": 516,
      "12d": 517,
      "8.gL": 518,
      "16fLL": 519,
      "4.gg": 520,
      "1.r": 521,
      "4e- 4": 522,
      "4.G": 523,
      "16eeJk": 524,
      " 8b": 525,
      "]JJ": 526,
      "8AAL": 527,
      "4.D": 528,
      "32a": 529,
      "1f": 530,
      " 4b-": 531,
      "2.d": 532,
      "8AAA": 533,
      "[Jk": 534,
      "2gg": 535,
      "1cc": 536,
      "16gJk": 537,
      "8GGL": 538,
      "8.ccL": 539,
      "8g#J": 540,
      "2ff": 541,
      "8.ff#": 542,
      " 8ff": 543,
      "8bbJ": 544,
      "8c#J": 545,
      " 4F": 546,
      "16ff#JJ": 547,
      "16ccJk": 548,
      "8gg#": 549,
      "16ffJJ": 550,
      "32g": 551,
      "16cJJ": 552,
      "8F#J": 553,
      "16FF": 554,
      "4.A": 555,
      ")L": 556,
      "4E- 4": 557,
      "2BB-": 558,
      "16b-JJ": 559,
      "16g#": 560,
      "1F": 561,
      "] ": 562,
      "8a-L": 563,
      "8C#": 564,
      "32gg": 565,
      "8.f#": 566,
      "4bb-": 567,
      "4ccc": 568,
      "2.a": 569,
      "8E-L": 570,
      "8E-J": 571,
      "8AAJ": 572,
      "LL ": 573,
      "64r": 574,
      "8eee": 575,
      "4.C": 576,
      "12ff#": 577,
      "8a-J": 578,
      " 4gg": 579,
      "16a-": 580,
      "8d-": 581,
      "16cc#JJ": 582,
      "16f#JJ": 583,
      "8G#": 584,
      "2.cc": 585,
      "8.ggL": 586,
      "*k[b-e-a-]": 587,
      "*k[f#c#g#]": 588,
      "1E": 589,
      "2E-": 590,
      "8.ff": 591,
      "2ccc": 592,
      "2BB": 593,
      "16aa-": 594,
      "16EE": 595,
      "8c#L": 596,
      " 4D": 597,
      "8g#L": 598,
      "16DD": 599,
      "8fL ": 600,
      "*met(c)": 601,
      "4.F": 602,
      " 4f#": 603,
      "4C#": 604,
      "8BB-L": 605,
      "#d": 606,
      "*k[f#c#g#d": 607,
      "16ffLL": 608,
      "4G#": 609,
      "8.c": 610,
      "4d-": 611,
      "2.dd": 612,
      "1AA": 613,
      "2.e": 614,
      "2.c": 615,
      "16qq": 616,
      "4.b-": 617,
      "16ff#LL": 618,
      "2c#": 619,
      " 8B": 620,
      " 4E": 621,
      "16aaJJ": 622,
      "8dd-": 623,
      "16aaLL": 624,
      "8FF#": 625,
      "1dd": 626,
      "8GGJ": 627,
      "16AJJ": 628,
      "16cLL": 629,
      "8.b-": 630,
      " 4ff": 631,
      " 8aa": 632,
      "*staff3": 633,
      "16GJJ": 634,
      "8.eL": 635,
      "2.G": 636,
      "8F#L": 637,
      " 2g": 638,
      "8.A": 639,
      "8A-J": 640,
      " 8B-": 641,
      "4FF#": 642,
      " 4e-": 643,
      "12f": 644,
      "12f#": 645,
      " 2G": 646,
      "2.f": 647,
      "8qqgg": 648,
      "2.D": 649,
      "32d": 650,
      "8GGG": 651,
      "2F#": 652,
      " 2cc": 653,
      "8BBJ": 654,
      "*k[b-e-a-d-": 655,
      "*k[b-e-a-d-g": 656,
      "8ccc#": 657,
      "8BBL": 658,
      "16b-LL": 659,
      "4f 4a": 660,
      "16ggJk": 661,
      "4EE-": 662,
      " 16gg": 663,
      "12aa": 664,
      "4.f#": 665,
      "8.G": 666,
      "4e 4g": 667,
      "4ddd": 668,
      "*part3": 669,
      "ee-": 670,
      "8BB-J": 671,
      "8A-L": 672,
      "8BBB-": 673,
      "16ALL": 674,
      ")Jk": 675,
      "8.dL": 676,
      "16f#LL": 677,
      "4.ff": 678,
      "16eJk": 679,
      "2cccT": 680,
      "1GG": 681,
      "8bb-L": 682,
      "8gg#J": 683,
      "16ff#Jk": 684,
      "4F 4A": 685,
      "8dd#": 686,
      "16CC": 687,
      " 2A": 688,
      "64e": 689,
      "8AA-": 690,
      "1b": 691,
      "4AA-": 692,
      "8d#": 693,
      "4.AA": 694,
      "4AAA": 695,
      "2.A": 696,
      "16ddL": 697,
      "8BBB": 698,
      "8.aaL": 699,
      "12G": 700,
      "8.r": 701,
      "8.ff#L": 702,
      "2.C": 703,
      " 2a": 704,
      "12r": 705,
      "[LL": 706,
      "4.B-": 707,
      " 8f#": 708,
      "16cc#LL": 709,
      "16gg#": 710,
      "16A-": 711,
      "32ff": 712,
      "1B": 713,
      "4g]": 714,
      "16aL": 715,
      "12A": 716,
      "12ddJ": 717,
      "16bL": 718,
      " 8D": 719,
      "4.aa": 720,
      " 2c": 721,
      "16GLL": 722,
      "8F# ": 723,
      "8FFL": 724,
      "12ff": 725,
      "32f": 726,
      "16BJJ": 727,
      " 8b-": 728,
      "8fJ ": 729,
      " 2d": 730,
      "4.E": 731,
      " 4C": 732,
      " 8E": 733,
      "2a-": 734,
      "8.D": 735,
      "4dd-": 736,
      "8e- ": 737,
      "2aa": 738,
      "d-]": 739,
      "16dJk": 740,
      " 4aa": 741,
      "16eeL": 742,
      " 4F#": 743,
      "16ccc#": 744,
      "16eee": 745,
      "8bb-J": 746,
      "1B-": 747,
      "4F# 4": 748,
      "12bL": 749,
      "2FF": 750,
      "8.fL": 751,
      "*k[b-e-a-d-]": 752,
      "8cccL": 753,
      "bb": 754,
      "JJk": 755,
      "4d]": 756,
      "2cc#": 757,
      "4.e-": 758,
      "16f#Jk": 759,
      "*staff4": 760,
      "4.ff#": 761,
      "16e-JJ": 762,
      "-L ": 763,
      "16aK": 764,
      "4d#": 765,
      "4a]": 766,
      "12D": 767,
      "12c": 768,
      "12b-": 769,
      "16cc#Jk": 770,
      "8EE-": 771,
      "8dd(L": 772,
      "4E 4G": 773,
      "32D": 774,
      "32C": 775,
      " 2dd": 776,
      "*part4": 777,
      "]L ": 778,
      "16B-JJ": 779,
      "2.F": 780,
      " 16cc": 781,
      "4.B": 782,
      "8a(L": 783,
      "8aa-": 784,
      "16ccL": 785,
      "8dL ": 786,
      "16DJJ": 787,
      "16ddK": 788,
      "] 1": 789,
      "8g-": 790,
      "8D-": 791,
      "32G": 792,
      "16fJk": 793,
      "4.GG": 794,
      "16eeK": 795,
      "[L": 796,
      "8.E": 797,
      "[ 1": 798,
      "24cc": 799,
      "8gg#L": 800,
      "16ee-JJ": 801,
      "32aa": 802,
      "4d 4f": 803,
      "16dd#": 804,
      "2.b": 805,
      "8qqdd": 806,
      "8E- ": 807,
      "12aJ": 808,
      "4c# 4": 809,
      "2A-": 810,
      "8cccJ": 811,
      "16dd-": 812,
      "8.C": 813,
      "8.F": 814,
      "8a)J": 815,
      " 16a": 816,
      "8.f#L": 817,
      "2.E": 818,
      "4G 4B": 819,
      "8C#J": 820,
      "[J ": 821,
      "32A": 822,
      "|)": 823,
      "(J": 824,
      "1b-": 825,
      "16BLL": 826,
      "2.AA": 827,
      "16G#": 828,
      "8EEL": 829,
      " 4c#": 830,
      "16bK": 831,
      "16FJJ": 832,
      "*met(c|)": 833,
      "16eL": 834,
      "8G#J": 835,
      "16EJJ": 836,
      " 8F": 837,
      "8.B": 838,
      "16FF#": 839,
      "nJJ": 840,
      "4D-": 841,
      "8DDL": 842,
      "32c": 843,
      "v2": 844,
      "*clefGv2": 845,
      "8dd)J": 846,
      "]KL": 847,
      "8fff": 848,
      "]JJk": 849,
      "8d-J": 850,
      "8c# ": 851,
      " 4a-": 852,
      " 16d": 853,
      "16ggL": 854,
      "12aL": 855,
      "8.cc#L": 856,
      "8.ffL": 857,
      "12E": 858,
      "16B-LL": 859,
      " 8e-": 860,
      "16e-LL": 861,
      " 16ee": 862,
      "4g[": 863,
      "24a": 864,
      "24ee": 865,
      "2ff#": 866,
      "8e 8g": 867,
      "8d-L": 868,
      "4f]": 869,
      "8GJ ": 870,
      "12C": 871,
      "16gL": 872,
      "8f 8a": 873,
      "2g#": 874,
      "32b-": 875,
      "4gg#": 876,
      "cc#": 877,
      "16ee-LL": 878,
      "12cc#": 879,
      "16DLL": 880,
      "8g)J": 881,
      "4d 4g": 882,
      "24b": 883,
      "4c]": 884,
      "8A 8c": 885,
      "8FFJ": 886,
      " 2e": 887,
      "12B": 888,
      "8b(L": 889,
      "8c 8e": 890,
      "2.ee": 891,
      "8ccL ": 892,
      "16ccJ": 893,
      "8.B-": 894,
      "16fff": 895,
      " 2f": 896,
      "#a": 897,
      "*k[f#c#g#d#a": 898,
      "2ee-": 899,
      "1ee": 900,
      "16FLL": 901,
      "4c 4e": 902,
      "8.b-L": 903,
      "_ ": 904,
      "16CJJ": 905,
      "16aaJk": 906,
      "4dd#": 907,
      "4e- 4g": 908,
      "*M3/8": 909,
      "4D 4A": 910,
      "4g-": 911,
      "4BBB-": 912,
      "1e-": 913,
      "4aa-": 914,
      " 2B": 915,
      "24e": 916,
      " 16e": 917,
      "8dd#J": 918,
      " 2b": 919,
      "n[": 920,
      "*k[f#c#g#d#]": 921,
      "4cc]": 922,
      "32ff#": 923,
      "8ee(L": 924,
      "16aJ": 925,
      "8ggg": 926,
      "16b-Jk": 927,
      "12F": 928,
      "16d-": 929,
      "4d[": 930,
      "16C#": 931,
      " 2B-": 932,
      "2.B-": 933,
      "4a[": 934,
      "8g(L": 935,
      "4d 4f#": 936,
      "4g 4b": 937,
      "nLL": 938,
      "4GGG": 939,
      "- 4c": 940,
      "8dddL": 941,
      "4A 4c": 942,
      "4e]": 943,
      "-c": 944,
      "4f# 4a": 945,
      "*k[b-e-a-d-g-c": 946,
      "8gL ": 947,
      "2.GG": 948,
      "8G-": 949,
      "1BB": 950,
      "12ddL": 951,
      "2.b-": 952,
      "2g[": 953,
      "8dd-L": 954,
      "4B 4d": 955,
      "8C#L": 956,
      "8a#": 957,
      "4dd]": 958,
      "2DD": 959,
      "16c#JJ": 960,
      "*X": 961,
      "16ffJk": 962,
      "16a-JJ": 963,
      "16aKL": 964,
      " 8cc#": 965,
      "12eeL": 966,
      "1f#": 967,
      "8cL ": 968,
      "16ELL": 969,
      "8cc(L": 970,
      "32f#": 971,
      "8G#L": 972,
      "~L": 973,
      "4a 4cc": 974,
      "24dd": 975,
      " 16dd": 976,
      " 16ff": 977,
      "8dd-J": 978,
      "4C 4c": 979,
      "1BB-": 980,
      "8B 8d": 981,
      "16d#": 982,
      "8d#J": 983,
      "8D#": 984,
      " 8ff#": 985,
      "C#": 986,
      "16CLL": 987,
      "2.B": 988,
      "4C 4G": 989,
      "8cJ ": 990,
      "16g#JJ": 991,
      "8.AA": 992,
      "16bJ": 993,
      "16ggg": 994,
      "8A- ": 995,
      "4BBB": 996,
      "12B-": 997,
      "8b- ": 998,
      "8dddJ": 999,
      "2d[": 1000,
      "16eee-": 1001,
      "8cc)J": 1002,
      "8AA-L": 1003,
      "8eL ": 1004,
      "4BB- 4B-": 1005,
      " 4.g": 1006,
      "4E- 4G": 1007,
      "J 8G": 1008,
      " 4.cc": 1009,
      " 8C": 1010,
      "12gJ": 1011,
      "8qqee": 1012,
      "8.cL": 1013,
      "4.BB-": 1014,
      "8cc 8gg": 1015,
      "8EEJ": 1016,
      "2.e-": 1017,
      "1FF": 1018,
      "12eeJ": 1019,
      "12bJ": 1020,
      "4AA- 4": 1021,
      "L 8G": 1022,
      "8GG#": 1023,
      "4F 4c": 1024,
      " 16A": 1025,
      "16ff#L": 1026,
      "8qqg": 1027,
      "4.cc#": 1028,
      "*k[b-e-a-d-g-]": 1029,
      "8b)J": 1030,
      "L 8A": 1031,
      "8CCL": 1032,
      "L 8d": 1033,
      "4f[": 1034,
      "2g]": 1035,
      "8a 8cc": 1036,
      "16ddJ": 1037,
      "32F": 1038,
      "32B": 1039,
      "16ccK": 1040,
      "4GG 4G": 1041,
      "16bKL": 1042,
      "32E": 1043,
      "2a[": 1044,
      " 2F": 1045,
      "4.E-": 1046,
      "_L": 1047,
      "([": 1048,
      "8FFF": 1049,
      " 2b-": 1050,
      " 4E-": 1051,
      "4.BB": 1052,
      "4G 4B-": 1053,
      " 2E": 1054,
      "24gg": 1055,
      " 4.dd": 1056,
      "4c[": 1057,
      "[ 2.": 1058,
      "8DDJ": 1059,
      " 4.G": 1060,
      "24g": 1061,
      "16EE-": 1062,
      "16F#JJ": 1063,
      " 2D": 1064,
      " 4.a": 1065,
      "16bbLL": 1066,
      "12AA": 1067,
      "8AA-J": 1068,
      "8dd)": 1069,
      "12eJ": 1070,
      "4e 4cc": 1071,
      "2.f#": 1072,
      "8dd#L": 1073,
      "4B- 4d": 1074,
      "8F 8A": 1075,
      "16bbJJ": 1076,
      " 2ee": 1077,
      "16a-LL": 1078,
      " 4AA": 1079,
      "12gL": 1080,
      " 16g": 1081,
      "24r": 1082,
      "8B- 8d": 1083,
      "4E- 4B-": 1084,
      "2d]": 1085,
      "2EE": 1086,
      "4F# 4A": 1087,
      "8AJ ": 1088,
      "4cc[": 1089,
      "4g)": 1090,
      "16gK": 1091,
      "12ccL": 1092,
      "8A#": 1093,
      "16dL": 1094,
      "4C# 4": 1095,
      "2.gg": 1096,
      "8a]L": 1097,
      "12ccJ": 1098,
      "8g]L": 1099,
      " 8bb": 1100,
      "4dd[": 1101,
      "8.bb": 1102,
      "4e[": 1103,
      "4A]": 1104,
      "16fL": 1105,
      "8FJ ": 1106,
      "2..": 1107,
      "8v": 1108,
      "8va": 1109,
      " 4.A": 1110,
      "8.aJ": 1111,
      "4AA 4A": 1112,
      "4G]": 1113,
      " 8ddd": 1114,
      "8ee)J": 1115,
      "8qqcc": 1116,
      "12dJ": 1117,
      "16cJk": 1118,
      "8a)": 1119,
      "4e 4a": 1120,
      "KL ": 1121,
      "32AA": 1122,
      "12eL": 1123,
      "16ddKL": 1124,
      "8E 8G": 1125,
      "]JJJk": 1126,
      "4a#": 1127,
      "12ggJ": 1128,
      " 4.c": 1129,
      " 4ff#": 1130,
      "16gJ": 1131,
      "4eee": 1132,
      "16cccJJ": 1133,
      "16bb-LL": 1134,
      "2c[": 1135,
      "16AAA": 1136,
      "8gg(L": 1137,
      "8.c#": 1138,
      "8.GG": 1139,
      "4a)": 1140,
      "8aa-L": 1141,
      "2G#": 1142,
      "8FF#L": 1143,
      "4Bn": 1144,
      "16a#": 1145,
      "4D#": 1146,
      "2f[": 1147,
      "4bn": 1148,
      "8FF#J": 1149,
      " 16G": 1150,
      "4d)": 1151,
      "16g-": 1152,
      "8D-J": 1153,
      "2a]": 1154,
      "8D-L": 1155,
      "4G-": 1156,
      "4.a-": 1157,
      " 4.d": 1158,
      "4D 4F#": 1159,
      "2C#": 1160,
      "16c#LL": 1161,
      "] 2.": 1162,
      "16g#LL": 1163,
      "16F#LL": 1164,
      "*staff5": 1165,
      "4GG#": 1166,
      " 8ee-": 1167,
      "16AAJJ": 1168,
      "8g-J": 1169,
      "2.ff": 1170,
      "16eeJ": 1171,
      "8.cc#": 1172,
      "*part5": 1173,
      "2d-": 1174,
      "4c 4f": 1175,
      "8EE-L": 1176,
      "4g 4b-": 1177,
      " 4BB": 1178,
      "8EEE": 1179,
      "16ggJ": 1180,
      " 4ccc": 1181,
      "8g-L": 1182,
      "8aa-J": 1183,
      "4d- 4": 1184,
      "8d(L": 1185,
      "8gg-": 1186,
      "16BBB": 1187,
      "16bb-JJ": 1188,
      "1E-": 1189,
      "_ 1": 1190,
      "# 4B": 1191,
      "8d]L": 1192,
      "(KL": 1193,
      "2e[": 1194,
      "8DJ ": 1195,
      "4g(": 1196,
      "8d#L": 1197,
      "32bb": 1198,
      "8a- ": 1199,
      "2AA-": 1200,
      "16dd(LL": 1201,
      "8d)J": 1202,
      "8d 8f": 1203,
      "2.BB-": 1204,
      "16E-JJ": 1205,
      "16eJ": 1206,
      "4.FF": 1207,
      "4D- 4": 1208,
      "16ff#K": 1209,
      "12ggL": 1210,
      "L 8c": 1211,
      "8g 8b": 1212,
      "4.ee-": 1213,
      "24f": 1214,
      "8g[J": 1215,
      "16eeKL": 1216,
      "8.ddJ": 1217,
      "16AALL": 1218,
      "*staff1": 1219,
      "2cc[": 1220,
      "2c]": 1221,
      "4f 4dd": 1222,
      "KLL": 1223,
      "4G 4c": 1224,
      "4cc 4ee": 1225,
      "8dd]L": 1226,
      "4c# 4e": 1227,
      "4G 4d": 1228,
      "4b]": 1229,
      "2CC": 1230,
      "12GG": 1231,
      "4b-]": 1232,
      "16cccLL": 1233,
      " 8ccc": 1234,
      "*k[b-e-a-d-g-c-]": 1235,
      "12bb": 1236,
      "32GG": 1237,
      "8F# 8A": 1238,
      "~J": 1239,
      "1F#": 1240,
      "24d": 1241,
      "1ff": 1242,
      "8f]L": 1243,
      " 16f": 1244,
      "4ccc#": 1245,
      "8g)": 1246,
      "8cc]L": 1247,
      "16D-": 1248,
      "16gg#JJ": 1249,
      "4.c#": 1250,
      "4d 4b": 1251,
      "8.AL": 1252,
      "]J": 1253,
      "16ggK": 1254,
      "8G# ": 1255,
      " 4bb": 1256,
      "2f]": 1257,
      "4a- 4": 1258,
      "32e-": 1259,
      "2e]": 1260,
      "8f# 8a": 1261,
      "8g[": 1262,
      "8d- ": 1263,
      "16f#L": 1264,
      "16ffL": 1265,
      "32B-": 1266,
      "8e(L": 1267,
      "12c#": 1268,
      "4a(": 1269,
      " 2e-": 1270,
      "4A 4d": 1271,
      "16BBJJ": 1272,
      "4.F#": 1273,
      "8ee)": 1274,
      "1c#": 1275,
      "4d 4a": 1276,
      "4e)": 1277,
      "8gg)J": 1278,
      "g#": 1279,
      "1gg": 1280,
      "D-": 1281,
      " 2f#": 1282,
      "8bn": 1283,
      "16AA-": 1284,
      "4en": 1285,
      "4g 4cc": 1286,
      "128r": 1287,
      "2dd[": 1288,
      " 1A": 1289,
      "8fff#": 1290,
      "1EE": 1291,
      "4c 4e-": 1292,
      "(L ": 1293,
      "16A-JJ": 1294,
      "8C# ": 1295,
      " 16aa": 1296,
      "8a[J": 1297,
      "16GGJJ": 1298,
      " 16E": 1299,
      " 4ddd": 1300,
      "4f 4cc": 1301,
      " 4BB-": 1302,
      "8ff#(L": 1303,
      "*clefX": 1304,
      "8qqa": 1305,
      "8a#J": 1306,
      " 2gg": 1307,
      "2.BB": 1308,
      "16cc#L": 1309,
      "4G[": 1310,
      " 16B": 1311,
      "4A[": 1312,
      "8CCJ": 1313,
      "8GL ": 1314,
      "4e- 4cc": 1315,
      " 8a-": 1316,
      "16dd)JJ": 1317,
      "8e]L": 1318,
      "4d(": 1319,
      "8eee-": 1320,
      "4f 4b-": 1321,
      "16GGLL": 1322,
      "8a[": 1323,
      "8e)J": 1324,
      "16aaL": 1325,
      "16b-L": 1326,
      "16BB-LL": 1327,
      "8g]": 1328,
      "16E-LL": 1329,
      "4DD 4D": 1330,
      "#e": 1331,
      "*k[f#c#g#d#a#e": 1332,
      "12dL": 1333,
      " 16c": 1334,
      "8b)": 1335,
      "16BB-JJ": 1336,
      " 8c#": 1337,
      "2A[": 1338,
      "8qqb": 1339,
      "_L ": 1340,
      "8.GL": 1341,
      "8cc)": 1342,
      "4f 4a 4cc": 1343,
      "16ff#J": 1344,
      "8c# 8e": 1345,
      "#JJJ": 1346,
      "4.A-": 1347,
      "4A#": 1348,
      ")]": 1349,
      "4D 4d": 1350,
      " 16b": 1351,
      " 1G": 1352,
      "8aaa": 1353,
      " 4.b": 1354,
      "16dd#JJ": 1355,
      "1DD": 1356,
      "8.BB": 1357,
      "2cc]": 1358,
      "8G 8B": 1359,
      "8qqaa": 1360,
      "8g# ": 1361,
      "4FF 4F": 1362,
      "24ff": 1363,
      "8e- 8g": 1364,
      "16BBLL": 1365,
      "# 4b": 1366,
      "8f#L ": 1367,
      "32BB": 1368,
      "4D 4F": 1369,
      "8EE-J": 1370,
      "4fff": 1371,
      " 4A-": 1372,
      "8fL 8gg": 1373,
      "16dddJJ": 1374,
      "8c]L": 1375,
      "20": 1376,
      "4D 4G": 1377,
      " 2F#": 1378,
      "4CC 4C": 1379,
      "4dd)": 1380,
      "16gKL": 1381,
      "4C 4E": 1382,
      "*k[f#c#g#d#a#]": 1383,
      "16b(LL": 1384,
      "16ee(LL": 1385,
      "L 8D": 1386,
      " 4GG": 1387,
      "8.gJ": 1388,
      " 4.B-": 1389,
      "4dd(": 1390,
      "*clefC": 1391,
      "4B-]": 1392,
      "2G[": 1393,
      "4A 4c#": 1394,
      " 4.e": 1395,
      "16AJk": 1396,
      "4AA- 4A-": 1397,
      "4ee]": 1398,
      "12ff#L": 1399,
      "32ccc": 1400,
      "32c#": 1401,
      " 1g": 1402,
      " 4.f": 1403,
      "16cL": 1404,
      " 4ee-": 1405,
      "16a(LL": 1406,
      " 4bb-": 1407,
      "8d[J": 1408,
      " 8bb-": 1409,
      "8f)J": 1410,
      "8f#J ": 1411,
      "16eKL": 1412,
      "12ff#J": 1413,
      "4cc)": 1414,
      "8f(L": 1415,
      "16BBB-": 1416,
      "# 4ee": 1417,
      " 16b-": 1418,
      "4F]": 1419,
      "16ccKL": 1420,
      "4c)": 1421,
      "*M4/2": 1422,
      "16fff#": 1423,
      "G#": 1424,
      " 4.b-": 1425,
      "16dJ": 1426,
      "16gg-": 1427,
      "8d 8f#": 1428,
      "8f#)J": 1429,
      "2bb": 1430,
      "8qqggL": 1431,
      "4E 4B": 1432,
      "2A]": 1433,
      " 4.B": 1434,
      "8d[": 1435,
      " 2.A": 1436,
      "16D#": 1437,
      "2dd]": 1438,
      "12f#J": 1439,
      "16G#JJ": 1440,
      "6cc": 1441,
      "4A- 4c": 1442,
      "8E- 8G": 1443,
      "16cc#J": 1444,
      "16GJk": 1445,
      "8cc[J": 1446,
      "2.FF": 1447,
      "16dd-JJ": 1448,
      "8dd[J": 1449,
      "8cc 8ee": 1450,
      "16a)JJ": 1451,
      " 4.ee": 1452,
      "16cc#K": 1453,
      "8e[": 1454,
      "8A 8d": 1455,
      "12f#L": 1456,
      "[K": 1457,
      " 2A-": 1458,
      "4f)": 1459,
      "8.bJ": 1460,
      "2d#": 1461,
      "8b]L": 1462,
      "16A-LL": 1463,
      "16dddLL": 1464,
      "64cc": 1465,
      "8CC#": 1466,
      "4e(": 1467,
      "8d 8g": 1468,
      "4b[": 1469,
      "4F 4B-": 1470,
      "b-L": 1471,
      "8a]": 1472,
      " 2C": 1473,
      "8e[J": 1474,
      "12cc#J": 1475,
      "16eK": 1476,
      "8.BB-": 1477,
      "4A- 4": 1478,
      " 2ff": 1479,
      "6f": 1480,
      "8E 8A": 1481,
      "2FF#": 1482,
      "8BJ ": 1483,
      "8f[": 1484,
      "4b-[": 1485,
      "24G": 1486,
      "8bL ": 1487,
      "8CJ ": 1488,
      "24c": 1489,
      "ol": 1490,
      "8G-J": 1491,
      "8.eeJ": 1492,
      "8f#(L": 1493,
      "16cc)JJ": 1494,
      "8cc[": 1495,
      "8a#L": 1496,
      "8D#J": 1497,
      "32cc#": 1498,
      "8cc-": 1499,
      "8b-(L": 1500,
      "8GG#J": 1501,
      "8AA- ": 1502,
      "2.E-": 1503,
      "8c 8f": 1504,
      "4.DD": 1505,
      "8c-": 1506,
      "4D]": 1507,
      "24A": 1508,
      "8D- ": 1509,
      "8Bn": 1510,
      "12BB": 1511,
      "16aa-JJ": 1512,
      "6g": 1513,
      "-JJJ": 1514,
      "2G]": 1515,
      "8aa(L": 1516,
      "8.e-L": 1517,
      "24aa": 1518,
      "32eJJJ": 1519,
      "1CC": 1520,
      "8G 8c": 1521,
      "16d-JJ": 1522,
      "4f(": 1523,
      "4cc(": 1524,
      "# 4f#": 1525,
      "8ccn": 1526,
      "8e]": 1527,
      "d#": 1528,
      "8ff#)J": 1529,
      "#LLL": 1530,
      "4c(": 1531,
      "8b-)J": 1532,
      "8B 8e": 1533,
      " 1a": 1534,
      "4b 4dd": 1535,
      " 16D": 1536,
      " 8AA": 1537,
      "8f[J": 1538,
      "8ee]L": 1539,
      "16dd-LL": 1540,
      "16G-": 1541,
      "8ccc#L": 1542,
      "16GGG": 1543,
      "8.BL": 1544,
      "4A)": 1545,
      "16e-Jk": 1546,
      "6b": 1547,
      "8B-J ": 1548,
      "8e 8a": 1549,
      "8qqff": 1550,
      "12cc#L": 1551,
      "ig": 1552,
      "lig": 1553,
      "8dd[": 1554,
      " 8F#": 1555,
      "4b)": 1556,
      "8e#": 1557,
      "12fJ": 1558,
      "8.EE": 1559,
      "8G-L": 1560,
      "24b-": 1561,
      "4d 4b-": 1562,
      " 8cc 8ee": 1563,
      "2bb-": 1564,
      "16aaK": 1565,
      "4E 4A": 1566,
      " 8A-": 1567,
      ")K": 1568,
      " 2.g": 1569,
      "8DDD": 1570,
      "16.dd": 1571,
      " 16f#": 1572,
      "16ee)JJ": 1573,
      "8b 8dd": 1574,
      " 2.G": 1575,
      "32e[": 1576,
      "12e-": 1577,
      "8.eJ": 1578,
      " 8BB": 1579,
      "8gg)": 1580,
      "4f 4a-": 1581,
      "4..": 1582,
      "16A#": 1583,
      "6a": 1584,
      "8en": 1585,
      "8b-]L": 1586,
      "24ff#": 1587,
      "16fJ": 1588,
      "8.B-L": 1589,
      "8eeeL": 1590,
      "32F#": 1591,
      "8.ee-L": 1592,
      "4ee[": 1593,
      "8DD-": 1594,
      "32a-": 1595,
      "Jk 6": 1596,
      "*staff6": 1597,
      "8d]": 1598,
      "16f#K": 1599,
      "8dd(": 1600,
      "4FFF": 1601,
      "8.e-": 1602,
      "4gg-": 1603,
      "12fL": 1604,
      "8ccc#J": 1605,
      "*M9": 1606,
      "4eee-": 1607,
      "8D#L": 1608,
      "16BJk": 1609,
      " 1d": 1610,
      "2.c#": 1611,
      "4e- 4b-": 1612,
      "J 8D": 1613,
      "8c(L": 1614,
      "12aaJ": 1615,
      "-]LL": 1616,
      "16ee-Jk": 1617,
      "64b": 1618,
      "8c[J": 1619,
      "-[JJ": 1620,
      "16gg#LL": 1621,
      "L 8C": 1622,
      "6dd": 1623,
      "16aaa": 1624,
      "8GG#L": 1625,
      "8ff(L": 1626,
      "32bb-": 1627,
      "16AL": 1628,
      "4B]": 1629,
      "4BB- 4F": 1630,
      "8D 8A": 1631,
      "4fn": 1632,
      "8.bbL": 1633,
      "4.EE": 1634,
      "4d 4dd": 1635,
      "8cc#)J": 1636,
      ")JJJ": 1637,
      "8.FL": 1638,
      "12aaL": 1639,
      "32ddd": 1640,
      "16G#LL": 1641,
      "8GG-": 1642,
      "8d# ": 1643,
      "2e 2g": 1644,
      "4e-]": 1645,
      "12BB-": 1646,
      "16d#JJ": 1647,
      "12ccc": 1648,
      "2.aa": 1649,
      "2D-": 1650,
      "6e": 1651,
      "4ggg": 1652,
      "4EE 4E": 1653,
      "8.ggJ": 1654,
      "4.g#": 1655,
      "16cc(LL": 1656,
      "_ 6": 1657,
      "32qq": 1658,
      "-LLL": 1659,
      "32eLLL": 1660,
      "4f#]": 1661,
      "64dd": 1662,
      "2b-[": 1663,
      " 1E": 1664,
      "2F[": 1665,
      "8.FF": 1666,
      " 1D": 1667,
      "24f#": 1668,
      "6r": 1669,
      "8A#J": 1670,
      "16d-LL": 1671,
      "8cc]": 1672,
      "[LLL": 1673,
      "8c)J": 1674,
      "2.EE": 1675,
      "8b[": 1676,
      "*part6": 1677,
      " 4.D": 1678,
      "8c[": 1679,
      "4ff]": 1680,
      "8b[J": 1681,
      "L 8F": 1682,
      "16aa-LL": 1683,
      "4b(": 1684,
      "# 4c#": 1685,
      "4.bb": 1686,
      "*M3/2": 1687,
      " 2.a": 1688,
      "16cc#KL": 1689,
      "8AAAL": 1690,
      "8aa)J": 1691,
      "16dKL": 1692,
      "2.F#": 1693,
      "2EE-": 1694,
      " 1e": 1695,
      "1a-": 1696,
      " 2a-": 1697,
      "4g 4dd": 1698,
      "*8va": 1699,
      "8eJ 8g": 1700,
      "4En": 1701,
      "8a(": 1702,
      "4G)": 1703,
      "8G 8B-": 1704,
      "8AL ": 1705,
      "16ff#(LL": 1706,
      "16gg(LL": 1707,
      "16b-J": 1708,
      "*X8va": 1709,
      "8qqff#": 1710,
      "8EE- ": 1711,
      " 16F": 1712,
      " 8eee": 1713,
      "4f 4a 4cc 4ee": 1714,
      "4F[": 1715,
      "8ee- ": 1716,
      "16C#JJ": 1717,
      "8cc#(L": 1718,
      " 4.gg": 1719,
      "f-]": 1720,
      "8.DL": 1721,
      "16GG#": 1722,
      "64d": 1723,
      "-f-]": 1724,
      "*k[b-e-a-d-g-c-f-]": 1725,
      "16B-Jk": 1726,
      "*M6/4": 1727,
      "32ee-": 1728,
      "8.ccJ": 1729,
      " 1cc": 1730,
      "16FFLL": 1731,
      "*M9/8": 1732,
      "4c 4g": 1733,
      "4B-[": 1734,
      "16dd#LL": 1735,
      "4G(": 1736,
      "4C]": 1737,
      "8fL 8a": 1738,
      "16bn": 1739,
      "8eeeJ": 1740,
      "8f]": 1741,
      "4CC#": 1742,
      "6d": 1743,
      " 1c": 1744,
      "24cc#": 1745,
      "16C#LL": 1746,
      "ia": 1747,
      "ria": 1748,
      "*stria": 1749,
      "8b-[J": 1750,
      "4A(": 1751,
      "[ 6": 1752,
      "8C 8E": 1753,
      "8G- ": 1754,
      "12b-J": 1755,
      "-[Jk": 1756,
      "4cc-": 1757,
      "16.cc": 1758,
      "4gg]": 1759,
      "16ddd-": 1760,
      "4AA 4E": 1761,
      "8BBB-L": 1762,
      " 4.E": 1763,
      "16b)JJ": 1764,
      "1g[": 1765,
      "#_": 1766,
      "8dd]": 1767,
      "8ff#)": 1768,
      "4f#)": 1769,
      "16g(LL": 1770,
      "8ccL 8gg": 1771,
      "n)": 1772,
      "16ff#KL": 1773,
      "*k[f#c#g#d#a#e#]": 1774,
      "2dd-": 1775,
      "8aa#": 1776,
      "8AAJ ": 1777,
      "1aa": 1778,
      "8d)": 1779,
      "16GL": 1780,
      "16FJk": 1781,
      "2b[": 1782,
      "8C 8G": 1783,
      "4b- 4dd": 1784,
      "8a 8cc 8ee": 1785,
      " 2c#": 1786,
      "8EJ ": 1787,
      "4B 4e": 1788,
      "4c-": 1789,
      "16ggKL": 1790,
      "]JJJk 6": 1791,
      "8fn": 1792,
      "16gg)JJ": 1793,
      "16bbJk": 1794,
      "4BBn": 1795,
      "2D[": 1796,
      "bb-": 1797,
      "24F": 1798,
      "8e)": 1799,
      "(LLL": 1800,
      "4AAA 4AA": 1801,
      "16ffK": 1802,
      "4e- 4a-": 1803,
      "8ee[J": 1804,
      "8.ccc": 1805,
      "2.a-": 1806,
      " 2aa": 1807,
      ".r": 1808,
      "4.AA-": 1809,
      "8.aaJ": 1810,
      "12ffJ": 1811,
      "- 4gg": 1812,
      "4e 4b": 1813,
      "em": 1814,
      "16FFJJ": 1815,
      "rem": 1816,
      "trem": 1817,
      "olo": 1818,
      "tremolo": 1819,
      "2ddd": 1820,
      "12cJ": 1821,
      " 2AA": 1822,
      "q(": 1823,
      "[Jk ": 1824,
      "8fJ 8a": 1825,
      "12FF": 1826,
      "16DJk": 1827,
      " 2.c": 1828,
      " 4.F": 1829,
      "8G]L": 1830,
      " 1dd": 1831,
      "4f 4ff": 1832,
      "8aa)": 1833,
      "8A]L": 1834,
      "16f#KL": 1835,
      "LLLL": 1836,
      "8.fL ": 1837,
      "8c]": 1838,
      " 2.cc": 1839,
      "1d[": 1840,
      "8b]": 1841,
      "16ffJ": 1842,
      "2B-[": 1843,
      "8A)J": 1844,
      "8ff)J": 1845,
      "4G 4B 4d": 1846,
      "16g)JJ": 1847,
      " 16.": 1848,
      "4f# 4dd": 1849,
      "8b-[": 1850,
      "64c": 1851,
      "8bnJ": 1852,
      "L 8E": 1853,
      "4GG-": 1854,
      "4DD-": 1855,
      "8F 8B-": 1856,
      " 2.d": 1857,
      "12ddd": 1858,
      "2F]": 1859,
      "16f#J": 1860,
      "2b-]": 1861,
      "16g#Jk": 1862,
      "4ee)": 1863,
      "4BBB- 4BB-": 1864,
      "16aa#": 1865,
      " 8GG": 1866,
      "6c": 1867,
      " 4.e-": 1868,
      "4BB 4B": 1869,
      " 4cc#": 1870,
      "64a": 1871,
      "12bb-": 1872,
      "2D]": 1873,
      "(Jk": 1874,
      "L 8B-": 1875,
      "8gg]L": 1876,
      "8dL 8f": 1877,
      "12ffL": 1878,
      "4EE- 4E-": 1879,
      "2B-]": 1880,
      "4e#": 1881,
      "16dK": 1882,
      "16fKL": 1883,
      "4EEE": 1884,
      "16ee#": 1885,
      "1A-": 1886,
      "16g-JJ": 1887,
      "8.dJ": 1888,
      "8A(L": 1889,
      "8een": 1890,
      "16cc-": 1891,
      "12b-L": 1892,
      "8g 8b-": 1893,
      "8ee[": 1894,
      "JJJJ": 1895,
      "8ffL ": 1896,
      "TL": 1897,
      "8b-]": 1898,
      "4ccn": 1899,
      "2.DD": 1900,
      "8bnL": 1901,
      "8BBBL": 1902,
      "8ee#": 1903,
      "8ddd-": 1904,
      "4gg[": 1905,
      "8A[": 1906,
      " 4eee": 1907,
      "12ee-": 1908,
      "16a#JJ": 1909,
      "4G# 4B": 1910,
      "4.d-": 1911,
      " 16cc 16ee": 1912,
      "8dJ 8f": 1913,
      "16EELL": 1914,
      "8.CL": 1915,
      " 16ddd": 1916,
      "4.CC": 1917,
      "8ff]L": 1918,
      "8G(L": 1919,
      "8ccnL": 1920,
      "8AA#": 1921,
      "12EE": 1922,
      "24E": 1923,
      "4BB 4G": 1924,
      "4ff[": 1925,
      "2.ff#": 1926,
      "8cc 8ff": 1927,
      "- 4B-": 1928,
      "4E]": 1929,
      "8.EL": 1930,
      "4c 4a": 1931,
      "16ee-L": 1932,
      "*M12": 1933,
      " 1B": 1934,
      "4B- 4e-": 1935,
      "32BB-": 1936,
      "2F 2A": 1937,
      "2AAA": 1938,
      "2b]": 1939,
      "4.bb-": 1940,
      "8gg-J": 1941,
      "4D[": 1942,
      " 1F": 1943,
      "4B)": 1944,
      "8gg-L": 1945,
      "8eee-L": 1946,
      "[LL ": 1947,
      "8C 8c": 1948,
      "16BL": 1949,
      ")LL": 1950,
      "24B": 1951,
      "4GG 4D": 1952,
      "16d#LL": 1953,
      " 8BB-": 1954,
      "8qqgL": 1955,
      " 2.dd": 1956,
      "4.ccc": 1957,
      "8g(": 1958,
      "8.fJ": 1959,
      "8..": 1960,
      "8.ddd": 1961,
      "2bn": 1962,
      "16a-Jk": 1963,
      "4an": 1964,
      "8b- 8dd": 1965,
      "12a-": 1966,
      "8cc(": 1967,
      "4BB 4D": 1968,
      "12GJ": 1969,
      "4a 4dd": 1970,
      " 1C": 1971,
      "2ee[": 1972,
      " 16B-": 1973,
      "4ee(": 1974,
      "8gn": 1975,
      "2Bn": 1976,
      "*staff7": 1977,
      "4a- 4cc": 1978,
      "16.ee": 1979,
      "8CC 8C": 1980,
      "16EEJJ": 1981,
      "8ee 8gg": 1982,
      "8an": 1983,
      "*clefC3": 1984,
      " 16ccc": 1985,
      " 8G 8B": 1986,
      "16e-L": 1987,
      "2f 2a": 1988,
      "8A- 8c": 1989,
      "12AL": 1990,
      "8G[": 1991,
      "4f#[": 1992,
      "64f": 1993,
      "*stria1": 1994,
      "16g-LL": 1995,
      "*M12/8": 1996,
      "16ccc#JJ": 1997,
      "16B-L": 1998,
      "4d- 4f": 1999,
      " 1f": 2000,
      " 4.ff": 2001,
      " 16bb": 2002,
      "32DD": 2003,
      "8.c#L": 2004,
      "8BB-J ": 2005,
      "4F 4A 4c": 2006,
      "8BB- 8B-": 2007,
      " 2ee-": 2008,
      "8G)J": 2009,
      "8A]": 2010,
      "4e-[": 2011,
      "4An": 2012,
      "2g-": 2013,
      "32aa-": 2014,
      "8g- ": 2015,
      " 2.E": 2016,
      "8DD 8D": 2017,
      "8.DD": 2018,
      "8c#L ": 2019,
      "16fK": 2020,
      "4cc 4gg": 2021,
      "# 8e": 2022,
      "16aa(LL": 2023,
      "2.A-": 2024,
      "4B[": 2025,
      "16EJk": 2026,
      "16DL": 2027,
      "8g 8cc": 2028,
      "12AJ": 2029,
      "8A[J": 2030,
      "4b-)": 2031,
      "8GG 8G": 2032,
      "2d 2f": 2033,
      "1a[": 2034,
      "16aaJ": 2035,
      "8En": 2036,
      "8gg[": 2037,
      "8ff[": 2038,
      "8gJ 8b": 2039,
      "8G[J": 2040,
      " 2E-": 2041,
      "8f#]L": 2042,
      " 2BB": 2043,
      "8fffL": 2044,
      "8f 8cc": 2045,
      "2d 2g": 2046,
      "*part7": 2047,
      "#L ": 2048,
      "4g 4gg": 2049,
      "8ee(": 2050,
      "1c[": 2051,
      "4C 4F": 2052,
      "4b-(": 2053,
      "4AA 4C": 2054,
      "8b(": 2055,
      "8eeL ": 2056,
      "8B-]L": 2057,
      "8D ": 2058,
      "16DDLL": 2059,
      "16.a": 2060,
      "4B-)": 2061,
      "]K": 2062,
      "8f)": 2063,
      "2G 2B": 2064,
      "32E-": 2065,
      "4B 4g": 2066,
      "8A#L": 2067,
      "12cL": 2068,
      "16e- ": 2069,
      " 16C": 2070,
      "dd-": 2071,
      "16ff#)JJ": 2072,
      "16AA-LL": 2073,
      " 2cc#": 2074,
      "4.C#": 2075,
      "4a 4aa": 2076,
      "32eee": 2077,
      "4e 4g#": 2078,
      "4.g[": 2079,
      " 16ee-": 2080,
      "8GGGL": 2081,
      "8f#)": 2082,
      "8AAAJ": 2083,
      "4f#(": 2084,
      "8EJ 8G": 2085,
      "4c 4e 4g": 2086,
      " 16ff#": 2087,
      "8ba": 2088,
      "8eee-J": 2089,
      " 4d-": 2090,
      "4D 4B-": 2091,
      "4AA#": 2092,
      "16.gg": 2093,
      "8F 8c": 2094,
      "64ee": 2095,
      "32ccJJJ": 2096,
      "1G[": 2097,
      "nJk": 2098,
      "8.bb-L": 2099,
      "2E 2G": 2100,
      "1g]": 2101,
      "8AA 8A": 2102,
      "16c#Jk": 2103,
      "4G 4c 4e": 2104,
      " 8E-": 2105,
      "1e[": 2106,
      "16c-": 2107,
      "16fJk ": 2108,
      "16CJk": 2109,
      "8.a-L": 2110,
      "1d]": 2111,
      "4c 4cc": 2112,
      "16e#": 2113,
      " 2.F": 2114,
      "8GG 8D": 2115,
      "8.dL ": 2116,
      "8.g#L": 2117,
      "32g#": 2118,
      "8b-)": 2119,
      ";]": 2120,
      "32CC": 2121,
      "64gg": 2122,
      "2C[": 2123,
      "2en": 2124,
      "8.f#J": 2125,
      "# 4F#": 2126,
      "1f[": 2127,
      "8C-": 2128,
      " 2.e": 2129,
      "2B[": 2130,
      "8G 8d": 2131,
      "4e 4ee": 2132,
      "16D-LL": 2133,
      " 4.A-": 2134,
      "1cc#": 2135,
      "4B-(": 2136,
      "40": 2137,
      "8.ee-": 2138,
      "24bb": 2139,
      " 4.f#": 2140,
      "4C[": 2141,
      "8e-[J": 2142,
      "8ccnJ": 2143,
      "16ffKL": 2144,
      "8e-]": 2145,
      "8BL ": 2146,
      "8ffn": 2147,
      "8f#[": 2148,
      " 8ccc#": 2149,
      "8E#": 2150,
      "8DD-L": 2151,
      " 8e- ": 2152,
      "32FF": 2153,
      "uL": 2154,
      "12GL": 2155,
      "8a 8dd": 2156,
      "8f#[J": 2157,
      "32eeJJJ": 2158,
      "8a 8cc#": 2159,
      "1ee-": 2160,
      "4dn": 2161,
      "16D-JJ": 2162,
      "6D": 2163,
      "8GG# ": 2164,
      "8f 8ff": 2165,
      "16cJ": 2166,
      " 16bb-": 2167,
      "24D": 2168,
      "2B]": 2169,
      "24C": 2170,
      " 4FF": 2171,
      "32bJJJ": 2172,
      "aa-": 2173,
      "8cc-J": 2174,
      "8.a-": 2175,
      "8An": 2176,
      "4D)": 2177,
      "4E 4G#": 2178,
      "4g 4ee": 2179,
      "8cc#)": 2180,
      "8FFF#": 2181,
      "gg#": 2182,
      "ccc": 2183,
      "4cn": 2184,
      " 2.B": 2185,
      "16AA-JJ": 2186,
      "12DD": 2187,
      "8ee]": 2188,
      "4Fn": 2189,
      "16a#LL": 2190,
      "4ee 4gg": 2191,
      "16b-KL": 2192,
      "]Jk": 2193,
      "8BBBJ": 2194,
      "4B(": 2195,
      "4e 4cc#": 2196,
      "8B-[": 2197,
      "4g# 4b": 2198,
      " 2.f": 2199,
      "6G": 2200,
      ")[": 2201,
      "8B- 8e-": 2202,
      "8fffJ": 2203,
      "8G]": 2204,
      "2.cc#": 2205,
      "24e-": 2206,
      "8GG-L": 2207,
      "2BB- 2B-": 2208,
      "24eJJ": 2209,
      "8B]": 2210,
      "8e-]L": 2211,
      "8BBB-J": 2212,
      "4A 4e": 2213,
      "4f# 4b": 2214,
      " 4.a-": 2215,
      "8CC#J": 2216,
      "4GG# 4": 2217,
      "24B-": 2218,
      "8gL 8b": 2219,
      " 1b": 2220,
      "8CC#L": 2221,
      "32ccc#": 2222,
      "4GGG 4GG": 2223,
      "8e-[": 2224,
      "_LL": 2225,
      " 2.D": 2226,
      "1A[": 2227,
      "16aa)JJ": 2228,
      "64g": 2229,
      "*staff8": 2230,
      "2.ee-": 2231,
      "2GG 2G": 2232,
      "8B-(L": 2233,
      "4.EE-": 2234,
      "AA-": 2235,
      "32ccLLL": 2236,
      "16ccc#LL": 2237,
      "8AA 8E": 2238,
      "2d)": 2239,
      "8gg[J": 2240,
      "8c 8e-": 2241,
      "((": 2242,
      "8GGL 8G": 2243,
      "16b-K": 2244,
      "2E]": 2245,
      "2.g[": 2246,
      "2c 2e": 2247,
      "12g#": 2248,
      "8e-)J": 2249,
      "8cc-L": 2250,
      "8.F#": 2251,
      "2C]": 2252,
      "12F#": 2253,
      "4gn": 2254,
      "4e-)": 2255,
      "8BB 8D": 2256,
      "6A": 2257,
      "6ee": 2258,
      "8BBn": 2259,
      "2D 2A": 2260,
      "16a-L": 2261,
      "2ee]": 2262,
      "2e- 2g": 2263,
      "4d# 4f#": 2264,
      "2E[": 2265,
      "2e-[": 2266,
      "32EE": 2267,
      "8c 8e- ": 2268,
      "16eeeJJ": 2269,
      "L 8B": 2270,
      "8ff[J": 2271,
      " 8b- ": 2272,
      "8eL 8g": 2273,
      "2e-]": 2274,
      "16gg#Jk": 2275,
      "2..r": 2276,
      "8c-J": 2277,
      "8cn": 2278,
      "8.AAL": 2279,
      "8B-L ": 2280,
      "4BBB 4BB": 2281,
      "0.r": 2282,
      "8aL 8cc": 2283,
      "8b#": 2284,
      "4.a[": 2285,
      "16ff(LL": 2286,
      "1g#": 2287,
      "- 4f": 2288,
      "g-": 2289,
      " 2ff#": 2290,
      "8qqffJ": 2291,
      "4FF# 4F#": 2292,
      "32ddJJJ": 2293,
      "8dd 8ff": 2294,
      " 8d-": 2295,
      "16eeeLL": 2296,
      "8cccc": 2297,
      "2.CC": 2298,
      "8F# 8B": 2299,
      "J 8C": 2300,
      "4BB- 4D": 2301,
      "12BJ": 2302,
      "8qqcc#": 2303,
      "8B(L": 2304,
      "6ff": 2305,
      "16dJk ": 2306,
      "4F 4A-": 2307,
      "8CCL 8C": 2308,
      "8dn": 2309,
      "8c)": 2310,
      "*part8": 2311,
      "4F)": 2312,
      "8c-L": 2313,
      "4.dd[": 2314,
      "16FL": 2315,
      "8f 8a-": 2316,
      "12BL": 2317,
      "L 8AA": 2318,
      "2aa-": 2319,
      "8fJ 8gg": 2320,
      "8D# ": 2321,
      " 16c#": 2322,
      "8ff)": 2323,
      "6gg": 2324,
      "4cc# 4ee": 2325,
      "8F]L": 2326,
      "8.gL ": 2327,
      "4F# 4B": 2328,
      "2f# 2a": 2329,
      "2ff[": 2330,
      "4A 4c 4e": 2331,
      "4.G#": 2332,
      "16cc#(LL": 2333,
      "2C 2G": 2334,
      "4CC# 4": 2335,
      "1cc[": 2336,
      "8B[": 2337,
      "16FF#LL": 2338,
      "4a-]": 2339,
      "8f# 8b": 2340,
      "16d(LL": 2341,
      "8f#]": 2342,
      "K 6": 2343,
      "8B-[J": 2344,
      "64G": 2345,
      "2D 2F#": 2346,
      "6b-": 2347,
      "16.g": 2348,
      "*lig": 2349,
      "4C 4A": 2350,
      "8dd- ": 2351,
      "# 4ff#": 2352,
      "4e-(": 2353,
      "12EL": 2354,
      "12A-": 2355,
      "8e-L 8g": 2356,
      "8f 8dd": 2357,
      "8.dd(L": 2358,
      "4.FF#": 2359,
      "1a]": 2360,
      " 4.C": 2361,
      "4E 4c": 2362,
      "4aa]": 2363,
      "4E[": 2364,
      "4C-": 2365,
      "16D#JJ": 2366,
      " 16BB": 2367,
      "8D]L": 2368,
      "4ee-]": 2369,
      "24ccJJ": 2370,
      "2dd#": 2371,
      " 4g#": 2372,
      "64DD": 2373,
      "4F(": 2374,
      "8dJ 8g": 2375,
      "*Xlig": 2376,
      "1ff#": 2377,
      "4D 4B": 2378,
      "16DDJJ": 2379,
      "8B-)J": 2380,
      " 8ggg": 2381,
      "16EL": 2382,
      "4.dd-": 2383,
      "32bLLL": 2384,
      " 8c 8e": 2385,
      " 1ee": 2386,
      "16.ff": 2387,
      "4c# 4a": 2388,
      "4dd 4ff": 2389,
      "8f 8a 8cc 8ee": 2390,
      "16f 16a": 2391,
      "12eee": 2392,
      "2G-": 2393,
      "2BBB-": 2394,
      "4C# 4E": 2395,
      " 8.e": 2396,
      "4e- 4ee-": 2397,
      "8e#J": 2398,
      "2C 2c": 2399,
      "8FF 8F": 2400,
      "8gg(": 2401,
      " 8fff": 2402,
      "32aJJJ": 2403,
      "tL": 2404,
      "16dd)": 2405,
      "8aJ 8cc": 2406,
      "1c]": 2407,
      "8a- 8cc": 2408,
      "4C 4E 4G": 2409,
      "8B-]": 2410,
      " 16F#": 2411,
      "16CCLL": 2412,
      "8f#J 8a": 2413,
      "4cc 4ccc": 2414,
      "8DDL 8D": 2415,
      "8.CC": 2416,
      "8aa]L": 2417,
      "8BBJ ": 2418,
      "16FF#JJ": 2419,
      "# 4dd": 2420,
      " 2.b-": 2421,
      "12dd)J": 2422,
      " 4.aa": 2423,
      "# 4cc": 2424,
      "2E- 2G": 2425,
      "8qqddJ": 2426,
      "8.eL ": 2427,
      "1e]": 2428,
      "4E- 4A": 2429,
      "))": 2430,
      "8ccJ 8gg": 2431,
      "4een": 2432,
      " 16cc#": 2433,
      "L 8.A": 2434,
      "8ee-(L": 2435,
      "1G]": 2436,
      "8d 8dd": 2437,
      "1FF#": 2438,
      "16qqdd": 2439,
      "8BB 8E": 2440,
      "12gg#": 2441,
      " 2E 2G": 2442,
      "8B]L": 2443,
      "L 8.d": 2444,
      "64A": 2445,
      "2f#[": 2446,
      "8ddd#": 2447,
      "16G-JJ": 2448,
      "8g 8gg": 2449,
      "2a#": 2450,
      "32e_": 2451,
      "8EE 8E": 2452,
      "4AA]": 2453,
      "8D 8F": 2454,
      "4fff#": 2455,
      "4BB 4F#": 2456,
      "8.ff#J": 2457,
      "8DL 8A": 2458,
      "8e-(L": 2459,
      "4g- 4": 2460,
      "2d 2f#": 2461,
      "4gg(": 2462,
      "(JJ": 2463,
      "8qqggJ": 2464,
      "16ff)JJ": 2465,
      " 2.B-": 2466,
      "2GGG": 2467,
      "8GG-J": 2468,
      "# 8f#": 2469,
      "16cc#)JJ": 2470,
      "64e_": 2471,
      "24ccc": 2472,
      "2g)": 2473,
      "24bJJ": 2474,
      "12B-J": 2475,
      " 4.F#": 2476,
      "- 4e-": 2477,
      "8D]": 2478,
      "4cc 4ff": 2479,
      "8.bb-": 2480,
      "4E- 4e-": 2481,
      " 4fff": 2482,
      "16bbL": 2483,
      "32e]": 2484,
      "16g[JJ": 2485,
      " 8.cc": 2486,
      "4GG]": 2487,
      "16.b": 2488,
      "1f]": 2489,
      "16EE-LL": 2490,
      "16g]LL": 2491,
      "8.ffJ": 2492,
      "8A 8c#": 2493,
      "4C# 4A": 2494,
      "1D[": 2495,
      "8dJ 8f#": 2496,
      "4.ddd": 2497,
      "16aaKL": 2498,
      "8F#J 8A": 2499,
      "8B[J": 2500,
      "8a-[": 2501,
      "b#]": 2502,
      "16een": 2503,
      ":[": 2504,
      "8B#": 2505,
      "8g# 8b": 2506,
      "2g 2b": 2507,
      "8BB-L 8B-": 2508,
      "8.E-L": 2509,
      "6F": 2510,
      "16qqcc": 2511,
      "32eeLLL": 2512,
      "8f#L 8a": 2513,
      "8B)J": 2514,
      "Jk 16A": 2515,
      "#]LL": 2516,
      "8.cc#J": 2517,
      " 8aa-": 2518,
      "8c- ": 2519,
      "8F[": 2520,
      "#b#]": 2521,
      "*k[f#c#g#d#a#e#b#]": 2522,
      "8D[": 2523,
      "8D 8G": 2524,
      "1AAA": 2525,
      "4d 4f# 4a": 2526,
      " 8.d": 2527,
      "Jkk": 2528,
      "8BnL": 2529,
      "4E-]": 2530,
      "4gg)": 2531,
      "16FFF": 2532,
      "8.a(L": 2533,
      "12ee(L": 2534,
      "2f#]": 2535,
      "4a 4cc#": 2536,
      "[LLL ": 2537,
      "12e-J": 2538,
      "4E)": 2539,
      "16a- ": 2540,
      "8cc# 8ee": 2541,
      "8gg]": 2542,
      "32ggLLL": 2543,
      "12e-L": 2544,
      "8e-J 8g": 2545,
      "# 4e": 2546,
      " 16e-": 2547,
      "2g(": 2548,
      "8GGGJ": 2549,
      "_J ": 2550,
      "4FFF#": 2551,
      "2GG#": 2552,
      "4D- 4A-": 2553,
      "12FJ": 2554,
      "8.BB-L": 2555,
      "4.g(": 2556,
      "2D#": 2557,
      "12a)J": 2558,
      "8a 8aa": 2559,
      "8qqccJ": 2560,
      "[KKLL": 2561,
      " 2GG": 2562,
      "4ffn": 2563,
      "*met(C": 2564,
      "16E-Jk": 2565,
      "24ccLL": 2566,
      "12CC": 2567,
      "8D 8d": 2568,
      "1dd[": 2569,
      "8DL ": 2570,
      "16d)JJ": 2571,
      "8f-": 2572,
      "8e(": 2573,
      "128g": 2574,
      "4f 4a 4cc 4ee 4gg": 2575,
      "4Gn": 2576,
      "4.D-": 2577,
      "8E-J 8G": 2578,
      "16cc# ": 2579,
      "4dd 4ff#": 2580,
      "8AAA-": 2581,
      "8BnJ": 2582,
      "8d 8a": 2583,
      "2.a[": 2584,
      "24aJJ": 2585,
      "12a(L": 2586,
      "16dd]LL": 2587,
      "8D[J": 2588,
      "D#": 2589,
      "8aa[J": 2590,
      "*staff9": 2591,
      "8AA#J": 2592,
      "# 4d": 2593,
      "1A]": 2594,
      "4AAA-": 2595,
      "4C 4E-": 2596,
      "16gg-JJ": 2597,
      "8DD#": 2598,
      "2e)": 2599,
      "8ccL 8ee": 2600,
      "16eee-JJ": 2601,
      "8ccJ 8ee": 2602,
      "4A 4c 4f": 2603,
      "6B": 2604,
      "16cKL": 2605,
      "2gg[": 2606,
      "8F 8A- ": 2607,
      "16b#": 2608,
      "16AA#": 2609,
      "24aLL": 2610,
      "8FL ": 2611,
      "32gg#": 2612,
      " 8A- ": 2613,
      "8ffnL": 2614,
      "2AA 2A": 2615,
      "16GG-": 2616,
      "16EEE": 2617,
      "8fL 8ff": 2618,
      "4.e 4.g": 2619,
      "8a-]L": 2620,
      "12dd(L": 2621,
      "4ddd-": 2622,
      "Jk 16c": 2623,
      "2B 2d": 2624,
      "2ff]": 2625,
      "16qqee": 2626,
      "8ee-]L": 2627,
      "32ggJJJ": 2628,
      "# 4g#": 2629,
      "2F 2c": 2630,
      "8E]": 2631,
      "4D(": 2632,
      "16eee-LL": 2633,
      "16G-LL": 2634,
      "1AA-": 2635,
      "8d ": 2636,
      "16G# ": 2637,
      " 1B-": 2638,
      "8CL 8G": 2639,
      "8eenJ": 2640,
      "8ff#]L": 2641,
      " 4.ee-": 2642,
      "24eeLL": 2643,
      "8aa#J": 2644,
      "16gg-LL": 2645,
      "32ddLLL": 2646,
      "16gJk ": 2647,
      "4aa#": 2648,
      "8FFL 8F": 2649,
      "128f": 2650,
      "8.GGL": 2651,
      "4c 4a-": 2652,
      "8FJ 8A": 2653,
      "4D 4F# 4A": 2654,
      "8d(": 2655,
      "8F]": 2656,
      "32C#": 2657,
      "8G 8B 8d": 2658,
      "8f 8gg": 2659,
      "16bb-Jk": 2660,
      "16b-(LL": 2661,
      "8GJ 8B": 2662,
      "2BBB": 2663,
      "6e-": 2664,
      "6B-": 2665,
      "16AJ": 2666,
      "8dd 8gg": 2667,
      "16ddd#": 2668,
      "8ddn": 2669,
      "4aaa": 2670,
      "32gJJJ": 2671,
      "16A-Jk": 2672,
      "1EE-": 2673,
      "16B-J": 2674,
      "8c 8g": 2675,
      "8.cccL": 2676,
      "8bq": 2677,
      "16A- ": 2678,
      "4AAA- 4": 2679,
      "8EE-L ": 2680,
      " 8.g": 2681,
      "16a)": 2682,
      "16cc]LL": 2683,
      "4C 4B-": 2684,
      "8enJ": 2685,
      "8CL 8c": 2686,
      "8aa[": 2687,
      "4ee-[": 2688,
      " 2bb": 2689,
      "32dd-": 2690,
      "32aLLL": 2691,
      "12DL": 2692,
      "16A#JJ": 2693,
      "Jk 16B-": 2694,
      "16BB-Jk": 2695,
      "8c 8cc": 2696,
      "1F[": 2697,
      "8Gn": 2698,
      "# 4cc#": 2699,
      "8EEJ ": 2700,
      "16c#L": 2701,
      "2A#": 2702,
      " 4EE": 2703,
      " 8.a": 2704,
      "24bb-": 2705,
      "8ee-[J": 2706,
      "8dd# ": 2707,
      "12ee-J": 2708,
      "2.dd[": 2709,
      "8qqgJ": 2710,
      "4cc#]": 2711,
      "2a)": 2712,
      "16cccc": 2713,
      "8e 8g#": 2714,
      "# 4A": 2715,
      "12ee-L": 2716,
      "1D]": 2717,
      "4F 4B- 4d": 2718,
      "0d": 2719,
      "8ffJ ": 2720,
      "12E-": 2721,
      "4ff)": 2722,
      "8a-]": 2723,
      "4ee#": 2724,
      " 2ccc": 2725,
      "16b-)JJ": 2726,
      "8ccq": 2727,
      "2d(": 2728,
      " 8g#": 2729,
      "8ee#J": 2730,
      "16D#LL": 2731,
      "16CL": 2732,
      "12b(L": 2733,
      "4D- 4F": 2734,
      " 8dJ": 2735,
      "16ccLL 16gg": 2736,
      "8bbb": 2737,
      "8E[": 2738,
      "*part9": 2739,
      "8.A-L": 2740,
      "1ccc": 2741,
      "2.E- ": 2742,
      "24bLL": 2743,
      "8g 8dd": 2744,
      " 8d 8f#": 2745,
      "1d-": 2746,
      "16e(LL": 2747,
      "8enL": 2748,
      "8DD- ": 2749,
      "8.A-": 2750,
      "8DJ 8G": 2751,
      "4aa[": 2752,
      "4BB-]": 2753,
      "2c)": 2754,
      "8BB- 8D": 2755,
      "8AA-L ": 2756,
      "2.d[": 2757,
      "8BB- 8F": 2758,
      " 8eee-": 2759,
      "64ff": 2760,
      "8e 8ee": 2761,
      "8BL 8d": 2762,
      "8E- 8B-": 2763,
      "12EJ": 2764,
      "4CC# 4C#": 2765,
      "8gggL": 2766,
      "12FL": 2767,
      "8cL 8e": 2768,
      "1C#": 2769,
      "6f#": 2770,
      " 2.b": 2771,
      " 4.c#": 2772,
      "8a-[J": 2773,
      "4c#)": 2774,
      "16f#(LL": 2775,
      "8ff]": 2776,
      "`J": 2777,
      "8D(L": 2778,
      "24ddLL": 2779,
      " 16AA": 2780,
      "128e": 2781,
      "16cccJk": 2782,
      "16EE-JJ": 2783,
      "*tremolo": 2784,
      "*Xtremolo": 2785,
      "# 4E": 2786,
      "8ee-[": 2787,
      "8a# ": 2788,
      "8C]L": 2789,
      "12B-L": 2790,
      "4.a(": 2791,
      "64aa": 2792,
      "8D)J": 2793,
      "4c#]": 2794,
      "8AAA 8AA": 2795,
      "24AA": 2796,
      "2AA]": 2797,
      "8cc#]L": 2798,
      "16GJ": 2799,
      "- 4ff": 2800,
      "L 8GG": 2801,
      "4E#": 2802,
      " 4.cc#": 2803,
      "8CCC": 2804,
      "1C[": 2805,
      "24ddJJ": 2806,
      "16AAJk": 2807,
      "8fJ 8ff": 2808,
      "]J ": 2809,
      "8f(": 2810,
      "16f[Jk": 2811,
      "4ff#]": 2812,
      "8F(L": 2813,
      " 1F#": 2814,
      " 4aa-": 2815,
      "Jk 16g": 2816,
      "Jk 16d": 2817,
      "8bb(L": 2818,
      "16an": 2819,
      "4.d#": 2820,
      "8c 8e 8g": 2821,
      " 16eee": 2822,
      "8.eee": 2823,
      " 1b-": 2824,
      "2.g#": 2825,
      "4D 4F 4A": 2826,
      "16bbb": 2827,
      "16C-": 2828,
      "4.f 4.a": 2829,
      "8bJ 8dd": 2830,
      "2A 2c": 2831,
      "2c 2f": 2832,
      "8gggJ": 2833,
      "8ee#L": 2834,
      "16f-": 2835,
      "32FF#": 2836,
      "_J": 2837,
      " 1.": 2838,
      "1cc]": 2839,
      "12CJ": 2840,
      "G-": 2841,
      "16BJ": 2842,
      "16fffLL": 2843,
      "16en": 2844,
      "4cc#[": 2845,
      "16g[Jk": 2846,
      "8CC# ": 2847,
      "8Fn": 2848,
      "4.dd(": 2849,
      "16e)JJ": 2850,
      "8CJ 8G": 2851,
      "8C[": 2852,
      "2AA[": 2853,
      " 2d-": 2854,
      "16FFF#": 2855,
      "16cc[JJ": 2856,
      "8.cJ": 2857,
      "-J ": 2858,
      "16ee)": 2859,
      "0g": 2860,
      " 2.C": 2861,
      "Jk 16G": 2862,
      "8A# ": 2863,
      " 16cc 16ee 16gg": 2864,
      "8e#L": 2865,
      "4F#]": 2866,
      "1.d": 2867,
      "1G#": 2868,
      "8a ": 2869,
      "8g ": 2870,
      "16ccn": 2871,
      "8.e-L ": 2872,
      "12DJ": 2873,
      "16fffJJ": 2874,
      "16g#L": 2875,
      "8ee-)J": 2876,
      "4ff#[": 2877,
      "4a-[": 2878,
      "2gg#": 2879,
      "8AAL 8A": 2880,
      "4FF 4C": 2881,
      "8c ": 2882,
      "2a(": 2883,
      "16bbK": 2884,
      "8gL 8b-": 2885,
      " 1AA": 2886,
      "2A)": 2887,
      "~LL": 2888,
      "2e 2a": 2889,
      "12g#J": 2890,
      "8bL 8dd": 2891,
      "# 4a": 2892,
      "4.d[": 2893,
      "*met(C)": 2894,
      "8ccL 8ff": 2895,
      "8DD-J": 2896,
      "4C)": 2897,
      "16E- ": 2898,
      "4c 4f 4a": 2899,
      "16dd(L": 2900,
      "4.g]": 2901,
      "4DDD": 2902,
      "8e- 8cc": 2903,
      "12c#J": 2904,
      "4g 4ee-": 2905,
      "8b-(": 2906,
      "8GG- ": 2907,
      "2f)": 2908,
      "8c#J 8e": 2909,
      " 4ggg": 2910,
      "8AA- 8A-": 2911,
      "12bbL": 2912,
      "8cc 8ccc": 2913,
      "8ggn": 2914,
      "8G)": 2915,
      "8.g#": 2916,
      "12d-": 2917,
      "16a]LL": 2918,
      "12CL": 2919,
      "2c(": 2920,
      "24ddd": 2921,
      "8CL ": 2922,
      "`L": 2923,
      "8aa]": 2924,
      "16CCJJ": 2925,
      " 2.ee": 2926,
      "2E- 2B-": 2927,
      "4A 4c# 4e": 2928,
      "8.b-J": 2929,
      "8AL 8d": 2930,
      "16Bn": 2931,
      "4DD- 4": 2932,
      "1b-[": 2933,
      "4B 4d 4g": 2934,
      "L 8.c": 2935,
      "4.aa-": 2936,
      "8E]L": 2937,
      " 16A 16d": 2938,
      "24gJJ": 2939,
      "16f)JJ": 2940,
      "4FFF 4FF": 2941,
      "8.g(L": 2942,
      " 12gg": 2943,
      "4D 4c": 2944,
      " 1f#": 2945,
      "8.cL ": 2946,
      "8cJ 8e": 2947,
      "*staff10": 2948,
      "16e-J": 2949,
      "24eeJJ": 2950,
      "8eenL": 2951,
      "4DD#": 2952,
      "8EE- 8E-": 2953,
      "8qqf#": 2954,
      "0G": 2955,
      "4cc#)": 2956,
      "4.AAA": 2957,
      "8a 8cc 8ee 8gg": 2958,
      "4f-": 2959,
      "16aa#JJ": 2960,
      "8d 8b": 2961,
      "4.d(": 2962,
      "2.EE-": 2963,
      "8b 8ee": 2964,
      "4AA- 4E-": 2965,
      " 32g": 2966,
      "4dd 4ddd": 2967,
      "Jk 16cc": 2968,
      "16dd)Jk": 2969,
      "16bbb-": 2970,
      "4ff(": 2971,
      "JK": 2972,
      " 16E 16G": 2973,
      "8GL 8B": 2974,
      "4B- 4f": 2975,
      "6C": 2976,
      "1E[": 2977,
      "2.bb": 2978,
      "8cc#[": 2979,
      "12a-J": 2980,
      "4G 4g": 2981,
      "16a[Jk": 2982,
      "4E 4G 4B": 2983,
      "32ggg": 2984,
      "8BBB- 8BB-": 2985,
      "8C 8F": 2986,
      "16A#LL": 2987,
      "8FL 8A": 2988,
      "12gg)J": 2989,
      "16.e": 2990,
      " 8dd-": 2991,
      "16E#": 2992,
      "8FF ": 2993,
      "4.F 4.A": 2994,
      "16f]LL": 2995,
      "8aa#L": 2996,
      "2e 2cc": 2997,
      "8cc#L ": 2998,
      "8C-L": 2999,
      "8BB ": 3000,
      "8F)J": 3001,
      " 4.E-": 3002,
      "8g#L ": 3003,
      "8EL 8G": 3004,
      "16f(LL": 3005,
      "8AA#L": 3006,
      "16a)Jk": 3007,
      "4GG[": 3008,
      "*staff2": 3009,
      "8ee-]": 3010,
      "16GG#JJ": 3011,
      "4A 4d 4f#": 3012,
      "2AA- 2A-": 3013,
      "16dd(": 3014,
      "16d[JJ": 3015,
      "4b- 4bb-": 3016,
      "8d- 8f": 3017,
      "8EE-L 8E-": 3018,
      "2g 2b-": 3019,
      "8ff#[J": 3020,
      "8E-]": 3021,
      "8AA 8C": 3022,
      "16.f": 3023,
      "16F#Jk": 3024,
      "16qqa": 3025,
      "16dd-Jk": 3026,
      "8A)": 3027,
      "8eJ 8a": 3028,
      "16c[Jk": 3029,
      "2.g]": 3030,
      " 16B 16d": 3031,
      "16GGJk": 3032,
      "8fnL": 3033,
      " 2BB-": 3034,
      "8ddd-L": 3035,
      "16a[JJ": 3036,
      "16e[JJ": 3037,
      "4Cn": 3038,
      "16aaa-": 3039,
      "1BBB-": 3040,
      "8GGG 8GG": 3041,
      "4EE 4BB": 3042,
      "_JJ": 3043,
      "4b 4ee": 3044,
      "4D 4G 4B": 3045,
      "32dd#": 3046,
      "4c 4d": 3047,
      "8AA ": 3048,
      "8dd 8ff#": 3049,
      "-]KL": 3050,
      "0f": 3051,
      "4F#)": 3052,
      "16ee- ": 3053,
      "#[Jk": 3054,
      "16ee(L": 3055,
      "64bb": 3056,
      "8e 8cc": 3057,
      "2gg]": 3058,
      " 4FF#": 3059,
      "2.ccc": 3060,
      "16qqgg": 3061,
      "8c 8d": 3062,
      "8BB 8B": 3063,
      "32ffJJJ": 3064,
      "16GG#LL": 3065,
      " 8.dd": 3066,
      "16bnJJ": 3067,
      "4E(": 3068,
      "16cc)": 3069,
      "L 8.G": 3070,
      "4e- 4a": 3071,
      "8.F#L": 3072,
      "4.g-": 3073,
      "1F]": 3074,
      "2.cc[": 3075,
      "8gJ 8b-": 3076,
      "8.b(L": 3077,
      " 4.ff#": 3078,
      "16cK": 3079,
      "12ccc#": 3080,
      "16CC#": 3081,
      "8eq": 3082,
      "8.ee(L": 3083,
      "12dd-": 3084,
      "4A 4a": 3085,
      "16d[Jk": 3086,
      "2G)": 3087,
      "# 4d#": 3088,
      "8dL 8f#": 3089,
      "16bb-L": 3090,
      "8dd)L": 3091,
      "32fff": 3092,
      "8F 8A 8c": 3093,
      "8bbb-": 3094,
      " 1e-": 3095,
      "4E 4e": 3096,
      "8GG ": 3097,
      " 4ccc#": 3098,
      "0A": 3099,
      "-_": 3100,
      "4b 4bb": 3101,
      "4BB- 4G": 3102,
      "8fL 8cc": 3103,
      "2eee": 3104,
      "32fJJJ": 3105,
      "4a 4ee": 3106,
      "4BB 4E": 3107,
      " 2.e-": 3108,
      "4.e[": 3109,
      " 8gg#": 3110,
      "8A 8e": 3111,
      "# 8B": 3112,
      "8B-L 8d": 3113,
      "1bb": 3114,
      "1.c": 3115,
      "*part10": 3116,
      "4.dd#": 3117,
      "16f#)JJ": 3118,
      "2c# 2e": 3119,
      "24ee-": 3120,
      "8cq": 3121,
      "8DD ": 3122,
      "16DD-": 3123,
      "8.gg#L": 3124,
      "16a(": 3125,
      "4ee- 4": 3126,
      "2G 2B-": 3127,
      "32fff#": 3128,
      "8f#(": 3129,
      "2c 2e-": 3130,
      "2e(": 3131,
      "4E-[": 3132,
      "16g# ": 3133,
      "4.gg[": 3134,
      "8ff# 8aa": 3135,
      "8ff-": 3136,
      "4f 4g": 3137,
      "8GGJ 8G": 3138,
      "4AAn": 3139,
      "8c#[": 3140,
      "2f(": 3141,
      "16F#L": 3142,
      "16gggJJ": 3143,
      "4E- 4A- 4c": 3144,
      "8.E-": 3145,
      "4BB-[": 3146,
      "64GG": 3147,
      "1dd]": 3148,
      "J 8AA": 3149,
      "4.cc(": 3150,
      "4F# 4d": 3151,
      "8ff(": 3152,
      "- 4d-": 3153,
      "4d 4f 4a": 3154,
      "2fn": 3155,
      " 4c 4e": 3156,
      "64C": 3157,
      "8AA]L": 3158,
      "2cc(": 3159,
      "4.G 4.B": 3160,
      "8g 8b- ": 3161,
      "4AA[": 3162,
      "8E 8B": 3163,
      "4C(": 3164,
      "8BBB-L ": 3165,
      "8Dn": 3166,
      "8AJ 8c": 3167,
      "] 6": 3168,
      "8AAA- ": 3169,
      "2.bb-": 3170,
      "16AKL": 3171,
      "2a 2cc": 3172,
      "16AAL": 3173,
      "12a-L": 3174,
      "1bb-": 3175,
      "T(L": 3176,
      "4g 4b 4dd": 3177,
      "8fnJ": 3178,
      "16d]LL": 3179,
      "16B 16d": 3180,
      "4.cc[": 3181,
      "48r": 3182,
      "32gLLL": 3183,
      "4.BB- 4.B-": 3184,
      "8G# 8B": 3185,
      "8qqbb": 3186,
      "8BB-J 8B-": 3187,
      "1.g": 3188,
      "1B-[": 3189,
      "8e ": 3190,
      "4e 4g 4cc": 3191,
      "8g 8ee": 3192,
      "2ee-[": 3193,
      "8.E-L ": 3194,
      "16ffn": 3195,
      "0e": 3196,
      "4A-]": 3197,
      "4d 4g 4b": 3198,
      "8F[J": 3199,
      "16.r": 3200,
      "24F#": 3201,
      "16.aa": 3202,
      "8C-J": 3203,
      "2.d-": 3204,
      "16b)": 3205,
      "8qqe": 3206,
      "8cc#[J": 3207,
      "4.a]": 3208,
      "8qqeeJ": 3209,
      "4C 4A-": 3210,
      "8d[ ": 3211,
      "16ddn": 3212,
      "16gn": 3213,
      "1C]": 3214,
      "8c#)J": 3215,
      "8ee- 8gg": 3216,
      "16ee#JJ": 3217,
      "4Dn": 3218,
      " 8dd 8ff": 3219,
      " 4G#": 3220,
      "8gJ 8gg": 3221,
      "]KL ": 3222,
      "8BBB 8BB": 3223,
      "24ggJJ": 3224,
      "2D 2d": 3225,
      "16f[JJ": 3226,
      " 24gg": 3227,
      "16e]LL": 3228,
      " 2.F#": 3229,
      "16E-L": 3230,
      "0a": 3231,
      "16a 16cc": 3232,
      "16dd[JJ": 3233,
      "4AAA- 4AA-": 3234,
      "4G 4B- 4d": 3235,
      "8ffnJ": 3236,
      "8FFFL": 3237,
      "8F#]": 3238,
      "16E 16G": 3239,
      "*8ba": 3240,
      "4G 4A": 3241,
      "4F 4d": 3242,
      "4f# 4ff#": 3243,
      "16ff-": 3244,
      " 4g]": 3245,
      "16c 16e": 3246,
      "24fJJ": 3247,
      "4f 4b": 3248,
      "8cc#J ": 3249,
      "8gnJ": 3250,
      "8ff#[": 3251,
      "4GG- 4": 3252,
      " 8B- 8d": 3253,
      "2F# 2A": 3254,
      "*X8ba": 3255,
      "16ee]LL": 3256,
      "8gg# ": 3257,
      "4cc#(": 3258,
      "1.G": 3259,
      "16qqb": 3260,
      "8dL 8g": 3261,
      "32c ": 3262,
      "GG#": 3263,
      " 1BB": 3264,
      "8c(": 3265,
      "8a)L": 3266,
      "16cc 16ee": 3267,
      "8ddL 8ff": 3268,
      "8c#]": 3269,
      "#[LL": 3270,
      "8AA-L 8A-": 3271,
      "64AA": 3272,
      "8E[J": 3273,
      "4.d 4.f": 3274,
      "8FL 8c": 3275,
      "# 4gg#": 3276,
      "L 8.B-": 3277,
      "2.e[": 3278,
      "4.f# 4.a": 3279,
      "1b[": 3280,
      "8F-": 3281,
      " 1ff": 3282,
      "8.E ": 3283,
      "8e- 8b-": 3284,
      "8anL": 3285,
      "8anJ": 3286,
      "8G ": 3287,
      "2d 2a": 3288,
      "4E- 4G 4B-": 3289,
      "32dJJJ": 3290,
      " 2bb-": 3291,
      "2D 2F": 3292,
      "16b]LL": 3293,
      "2cc)": 3294,
      "16cc 16gg": 3295,
      "8.cc(L": 3296,
      " 2ddd": 3297,
      "16DJ": 3298,
      "8EL ": 3299,
      "16b(L": 3300,
      "*staff11": 3301,
      "8b 8bb": 3302,
      " 1gg": 3303,
      "4A 4d 4f": 3304,
      "8E(L": 3305,
      "8d# 8f#": 3306,
      "8gL 8gg": 3307,
      "8CC ": 3308,
      "8GGL 8D": 3309,
      "1E]": 3310,
      "64D": 3311,
      "8A-J 8c": 3312,
      "4c# 4f#": 3313,
      " 4d#": 3314,
      ";L": 3315,
      "4BB- 4A-": 3316,
      "8GJ 8c 8e": 3317,
      "# 4aa": 3318,
      "4.gg#": 3319,
      "8C]": 3320,
      "1GGG": 3321,
      "8.BBL": 3322,
      "8.FFL": 3323,
      "L 16gg": 3324,
      "8c#]L": 3325,
      "4E- 4c": 3326,
      "8fL 8aa": 3327,
      "4G- 4B-": 3328,
      "8e# ": 3329,
      " 24d": 3330,
      "4ff#(": 3331,
      "4E 4G# 4B": 3332,
      "8BJ 8d": 3333,
      "0c": 3334,
      "4ff-": 3335,
      "8C ": 3336,
      "8AA[": 3337,
      "16cccL": 3338,
      "2FF 2F": 3339,
      "8f 8b-": 3340,
      "8dddd": 3341,
      "6E": 3342,
      "8cc#]": 3343,
      "16gg)": 3344,
      "16DDD": 3345,
      "vJk": 3346,
      "16AK": 3347,
      "16fn": 3348,
      "8a-(L": 3349,
      "2d 2b": 3350,
      "4B- 4d 4f": 3351,
      "64B": 3352,
      "8ggL ": 3353,
      " 8.ee": 3354,
      "128gg": 3355,
      "16.d": 3356,
      "2.c[": 3357,
      "4dd 4gg": 3358,
      "2.a]": 3359,
      "2.F 2.A": 3360,
      "8.dd-L": 3361,
      "8G 8c 8e": 3362,
      "8c[ ": 3363,
      "4E- 4A-": 3364,
      "8.dddL": 3365,
      "4ee- 4gg": 3366,
      "2.d]": 3367,
      "16g)": 3368,
      "8FF 8C": 3369,
      "2GG]": 3370,
      "4A- 4e-": 3371,
      "16ee-J": 3372,
      "4b#": 3373,
      "128d": 3374,
      "4AA 4D": 3375,
      "8b- 8bb-": 3376,
      "4g#]": 3377,
      "8aa(": 3378,
      "12b)J": 3379,
      " 8fff#": 3380,
      "1C 1E": 3381,
      "8dL 8dd": 3382,
      " 16aa-": 3383,
      "16qqaa": 3384,
      "16d 16f": 3385,
      "4ff 4aa": 3386,
      "24BB": 3387,
      "12aa-": 3388,
      "n(": 3389,
      "2B- 2d": 3390,
      "8aL 8aa": 3391,
      "8fff#L": 3392,
      "8AAL ": 3393,
      "16B 16e": 3394,
      "2dd)": 3395,
      "# 4ccc#": 3396,
      "2.AA-": 3397,
      " 4g-": 3398,
      "4d 4e": 3399,
      "2f 2cc": 3400,
      "#]JJk": 3401,
      "8e- 8ee-": 3402,
      "8C[J": 3403,
      "4aa)": 3404,
      "4.G-": 3405,
      " 4a]": 3406,
      "12g#L": 3407,
      "8AAJ 8A": 3408,
      "32A-": 3409,
      "8C- ": 3410,
      "4AA 4c": 3411,
      "4a-)": 3412,
      "4F 4f": 3413,
      "16cc-JJ": 3414,
      "2d 2b-": 3415,
      "1.A": 3416,
      "16ee)Jk": 3417,
      "4aa(": 3418,
      "32fLLL": 3419,
      "2a-[": 3420,
      "1BBB": 3421,
      "16B#": 3422,
      "12ee)J": 3423,
      "8g[ ": 3424,
      "12gg#J": 3425,
      "8BBB-L 8BB-": 3426,
      " 2C#": 3427,
      "4B#": 3428,
      "8a-)J": 3429,
      " 2dd-": 3430,
      "8.aL ": 3431,
      "4.g 4.b": 3432,
      "24eLL": 3433,
      "12bbJ": 3434,
      "4g~": 3435,
      "8CJ 8c": 3436,
      " 16B 16e": 3437,
      "0D": 3438,
      "8E)J": 3439,
      "8AL 8c": 3440,
      "8dJ 8dd": 3441,
      "*part11": 3442,
      "8c 8a": 3443,
      "4c#[": 3444,
      "8EEEL": 3445,
      "8dd ": 3446,
      "4CCC": 3447,
      "24c#": 3448,
      "2GG[": 3449,
      "4E 4G 4c": 3450,
      "32ffLLL": 3451,
      "2.FF#": 3452,
      " 4.AA": 3453,
      "4A- 4d": 3454,
      "2BB-[": 3455,
      "8fff#J": 3456,
      "2E-]": 3457,
      "16aa#LL": 3458,
      "2G 2d": 3459,
      "12c#L": 3460,
      "8ff#(": 3461,
      "4.d 4.g": 3462,
      "8F 8A-": 3463,
      "#JJk": 3464,
      "128B-": 3465,
      "8A ": 3466,
      "64ddd": 3467,
      "8BBnL": 3468,
      "8ggnL": 3469,
      "8ddd-J": 3470,
      "16c# 16e": 3471,
      "12d#": 3472,
      "8DJ 8A": 3473,
      "16.ff#": 3474,
      "16b[JJ": 3475,
      "2e- 2cc": 3476,
      "8c# 8f#": 3477,
      "2dd(": 3478,
      " 16c 16e": 3479,
      " 4fff#": 3480,
      "8EEL 8E": 3481,
      "16dd#Jk": 3482,
      "4G 4B- 4e-": 3483,
      "6ee-": 3484,
      "8e-)": 3485,
      "4B- 4b-": 3486,
      "8A-[": 3487,
      "8.gg(L": 3488,
      "8dd 8ddd": 3489,
      "8.d-L": 3490,
      "4.f[": 3491,
      "- 8f": 3492,
      "4.DD 4.D": 3493,
      "16g)Jk": 3494,
      "16c-LL": 3495,
      "8GJ 8B-": 3496,
      "4B 4b": 3497,
      "8C(L": 3498,
      "4F# 4c#": 3499,
      "16d-Jk": 3500,
      "12AAL": 3501,
      "4.b[": 3502,
      "2A 2d": 3503,
      " 8G#": 3504,
      "4.C 4.c": 3505,
      "4.c(": 3506,
      "16e#JJ": 3507,
      "16d- ": 3508,
      "4ff#)": 3509,
      " 4.BB": 3510,
      "32aaJJJ": 3511,
      "4cc 4ee-": 3512,
      "8bb)J": 3513,
      "8b-L 8dd": 3514,
      "8ccc-": 3515,
      "24GG": 3516,
      "8E#J": 3517,
      "8aJ 8aa": 3518,
      "4.BBB-": 3519,
      "4ddn": 3520,
      "16c(LL": 3521,
      "32G#": 3522,
      "4c#(": 3523,
      "8E-L 8G": 3524,
      "16CJ": 3525,
      "8B-)": 3526,
      "8E ": 3527,
      "12BB-L": 3528,
      "16cc-LL": 3529,
      "4.cc]": 3530,
      "4EEE-": 3531,
      "2.ddd": 3532,
      "12GGL": 3533,
      "4DD- 4D-": 3534,
      "CC": 3535,
      "8f# 8ff#": 3536,
      "4F#[": 3537,
      "16C# ": 3538,
      "32ddJJk": 3539,
      "64ff#": 3540,
      "16a(L": 3541,
      "1E- ": 3542,
      "4D- 4d-": 3543,
      "8cc 8ee-": 3544,
      "16e[Jk": 3545,
      "4.f(": 3546,
      "4D 4A 4d": 3547,
      "16ccc-": 3548,
      "1D-": 3549,
      "8GJ 8B- 8e-": 3550,
      "2CC#": 3551,
      "4GG 4B": 3552,
      "8BB- ": 3553,
      "2BB-]": 3554,
      " 4cc]": 3555,
      "12G#": 3556,
      "8eL 8a": 3557,
      "16gg]LL": 3558,
      " 8.gg": 3559,
      "16cc[Jk": 3560,
      " 4c]": 3561,
      "2B)": 3562,
      "8e 8g 8cc": 3563,
      "16g[LL": 3564,
      "8DL 8d": 3565,
      "128b-": 3566,
      " 4G 4B": 3567,
      "8c#[J": 3568,
      "8e 8b": 3569,
      "32a[": 3570,
      "8a[ ": 3571,
      "16dd-L": 3572,
      "2A(": 3573,
      "8AAn": 3574,
      " 16E-": 3575,
      "8g#]": 3576,
      "4.e- 4.g": 3577,
      "8f 8a 8cc 8ee 8gg": 3578,
      "16ddd-JJ": 3579,
      "2.e]": 3580,
      "24dJJ": 3581,
      "16c[JJ": 3582,
      "4.d]": 3583,
      "8.f#L ": 3584,
      "2.f[": 3585,
      "8eeJ 8gg": 3586,
      "16BBB-LL": 3587,
      "128G": 3588,
      "8f ": 3589,
      "8c#(L": 3590,
      "32d#": 3591,
      "24gLL": 3592,
      "2g 2cc": 3593,
      "1ddd": 3594,
      "6.": 3595,
      "16cc)Jk": 3596,
      "8AAAL 8AA": 3597,
      ";)": 3598,
      "8A 8d 8f#": 3599,
      "4.ee[": 3600,
      "32ff#JJJ": 3601,
      "4BB]": 3602,
      "4d 4f 4b-": 3603,
      "4G 4e": 3604,
      "4.D 4.A": 3605,
      "4F# 4A 4d": 3606,
      "8fJ 8cc": 3607,
      "32b-JJJ": 3608,
      "2DD 2D": 3609,
      "8f[ ": 3610,
      "8GGG#": 3611,
      "24ggLL": 3612,
      "8FFJ ": 3613,
      "8ggnJ": 3614,
      "8E# ": 3615,
      "16ee#LL": 3616,
      "LL 16A": 3617,
      "2E-[": 3618,
      "8CCJ 8C": 3619,
      "12fff": 3620,
      "8Cn": 3621,
      "16e#LL": 3622,
      "2.c]": 3623,
      "4a 4ff": 3624,
      "4AA 4E 4A": 3625,
      "8b ": 3626,
      "4b 4gg": 3627,
      "2.C#": 3628,
      "DD": 3629,
      " 8.f": 3630,
      "4.E 4.G": 3631,
      "8A[ ": 3632,
      "16aa)": 3633,
      "*staff12": 3634,
      "8bb)": 3635,
      "2a-]": 3636,
      "8d 8b-": 3637,
      "8EnL": 3638,
      "2D 2G": 3639,
      "4ff# 4aa": 3640,
      "24a-": 3641,
      "4f~": 3642,
      "8ff 8aa": 3643,
      "16c)JJ": 3644,
      "*clefC4": 3645,
      "16dddd": 3646,
      "4C 4G 4c": 3647,
      " 4DD": 3648,
      "8B 8d 8g": 3649,
      "8g)L": 3650,
      " 8d 8g": 3651,
      " 16a-": 3652,
      "8C 8E 8G": 3653,
      "8F#[": 3654,
      "4A 4f": 3655,
      "8AA 8D": 3656,
      "8GGJ 8D": 3657,
      "16cLL ": 3658,
      " 4c# 4e": 3659,
      "12E-J": 3660,
      "8f# 8dd": 3661,
      "L 8.B": 3662,
      "#]JJ": 3663,
      "8DDJ 8D": 3664,
      "16ee-K": 3665,
      "2.AAA": 3666,
      " 8A- 8c": 3667,
      "8B)": 3668,
      "16c]LL": 3669,
      "12g)J": 3670,
      "64b-": 3671,
      "6aa": 3672,
      "2f 2b-": 3673,
      "Jk 16a": 3674,
      "8b#J": 3675,
      " 8e]": 3676,
      "8E 8A 8c": 3677,
      "16e-KL": 3678,
      "16gggLL": 3679,
      "128a": 3680,
      "8A 8c# 8e": 3681,
      "16fJJ 16a": 3682,
      "4e- 4f": 3683,
      "8cc 8aa": 3684,
      "16gg#L": 3685,
      "4.e(": 3686,
      "4.c 4.e": 3687,
      "(K": 3688,
      "16A(LL": 3689,
      "16b-]LL": 3690,
      "8A-]L": 3691,
      "4.c[": 3692,
      "4F#(": 3693,
      "2f#)": 3694,
      "8C)J": 3695,
      "L 8BB": 3696,
      "#:": 3697,
      " 4aaa": 3698,
      "4.BBB": 3699,
      "16b-[Jk": 3700,
      "2G(": 3701,
      "2C 2E 2G": 3702,
      "4.e]": 3703,
      "8b#L": 3704,
      "4ee-)": 3705,
      "8e- 8a-": 3706,
      "16b)Jk": 3707,
      "16F-": 3708,
      "16B-KL": 3709,
      "4.g 4.b-": 3710,
      "8g#)J": 3711,
      "1e-[": 3712,
      "12dd#": 3713,
      "24BB-": 3714,
      "eee-": 3715,
      "8GL 8d": 3716,
      "8BBnJ": 3717,
      "12cc(L": 3718,
      "4a-(": 3719,
      " 4d]": 3720,
      "1B[": 3721,
      "4ee-(": 3722,
      "4.GG 4.G": 3723,
      "8b)L": 3724,
      "16ddd-LL": 3725,
      "8a-L 8cc": 3726,
      "16fLL 16a": 3727,
      "16GGL": 3728,
      "128ff": 3729,
      "8GG[": 3730,
      "4.f]": 3731,
      "16BB-L": 3732,
      "1AA[": 3733,
      "8ddJ 8ff": 3734,
      "8f 8a 8cc": 3735,
      "16G(LL": 3736,
      "24cc#JJ": 3737,
      "8dJ 8a": 3738,
      "12bb-J": 3739,
      "2ccc#": 3740,
      "2ee-]": 3741,
      "8g#]L": 3742,
      "16BBJk": 3743,
      " 8cc]": 3744,
      "4g#)": 3745,
      "32eee-": 3746,
      "# 4bb": 3747,
      "8g#[": 3748,
      "4e 4g 4b": 3749,
      "8cc[ ": 3750,
      "16G- ": 3751,
      "16G[LL": 3752,
      "8E-[": 3753,
      "0F": 3754,
      "- 8cc": 3755,
      "16dddJk": 3756,
      "8fJ 8dd": 3757,
      "16.ddLL": 3758,
      "8f# ": 3759,
      "2fff": 3760,
      "16BK": 3761,
      " 2.f#": 3762,
      "8g#(L": 3763,
      " 4eee-": 3764,
      "16a-J": 3765,
      "16f 16gg": 3766,
      "16dd- ": 3767,
      "12gg(L": 3768,
      "16AAALL": 3769,
      "1GG[": 3770,
      "16c-JJ": 3771,
      " 1c#": 3772,
      "4BB[": 3773,
      "32b_": 3774,
      "16ff]LL": 3775,
      "*part12": 3776,
      "8.AJ": 3777,
      "2.E- 2.G": 3778,
      "16GKL": 3779,
      "10": 3780,
      "4.C 4.G": 3781,
      "4.F 4.c": 3782,
      "8F- ": 3783,
      "4ggn": 3784,
      "12g-": 3785,
      "8EEn": 3786,
      "8DD#J": 3787,
      "4FF]": 3788,
      "2GG 2D": 3789,
      "1b-]": 3790,
      "8FFF ": 3791,
      "12A-J": 3792,
      " 8e- 8g": 3793,
      "8E#L": 3794,
      "16d-L": 3795,
      "8E-]L": 3796,
      "8ff#]": 3797,
      "4g 4a": 3798,
      "8eJ 8ee": 3799,
      "16FJ": 3800,
      "32dLLL": 3801,
      "1B-]": 3802,
      "4GG 4BB": 3803,
      "]LLL": 3804,
      "8G 8g": 3805,
      "16.f#": 3806,
      "8fL 8dd": 3807,
      " 32cc": 3808,
      " 4G]": 3809,
      "8f-J": 3810,
      "L 8F#": 3811,
      "16ggn": 3812,
      "4.dd]": 3813,
      "8FF# ": 3814,
      "24eL": 3815,
      "8B 8d#": 3816,
      "4F-": 3817,
      " 2g#": 3818,
      "2A- 2c": 3819,
      "4B- 4e- 4g": 3820,
      "4A-[": 3821,
      "8cc#(": 3822,
      " 4g[": 3823,
      "12F#J": 3824,
      "8.fL 8.a": 3825,
      "2G 2c": 3826,
      "2.C 2.E": 3827,
      "ddd": 3828,
      "8f-L": 3829,
      "2c#[": 3830,
      "8d 8f# 8a": 3831,
      "16ee[JJ": 3832,
      "16g- ": 3833,
      "8EE 8BB": 3834,
      "8A 8c 8f": 3835,
      "8F# 8A 8d": 3836,
      "KK": 3837,
      "8DL 8G": 3838,
      "~(": 3839,
      "8F ": 3840,
      "8G[ ": 3841,
      " 4dd]": 3842,
      "32cc#JJJ": 3843,
      "4A# 4c#": 3844,
      "4.f 4.dd": 3845,
      "4d- 4b-": 3846,
      "24dLL": 3847,
      "16fff#JJ": 3848,
      " 2.a-": 3849,
      "12bb-L": 3850,
      "2AA 2E": 3851,
      "4g#[": 3852,
      "8E-J 8B-": 3853,
      "128dd": 3854,
      "16cc(L": 3855,
      "4B 4f#": 3856,
      " 2.gg": 3857,
      "4ccc]": 3858,
      "8E-L 8B-": 3859,
      "1E 1G": 3860,
      "128e-": 3861,
      "24fLL": 3862,
      "24ff#JJ": 3863,
      "#Jk": 3864,
      "8BB-]L": 3865,
      "16e-K": 3866,
      "8gnL": 3867,
      "16aa-Jk": 3868,
      "8FF# 8F#": 3869,
      "8gg)L": 3870,
      "4AA 4G": 3871,
      "8ee-)": 3872,
      "8d-[": 3873,
      "16ee(": 3874,
      "16ff#(L": 3875,
      " 4A]": 3876,
      "2E 2B": 3877,
      "2BB- 2F": 3878,
      "4c# 4g": 3879,
      "8EnJ": 3880,
      "2an": 3881,
      "1.e": 3882,
      "6a-": 3883,
      "8B 8g": 3884,
      "16g 16b-": 3885,
      "16ff#)": 3886,
      "12ff#(L": 3887,
      "8A 8c# ": 3888,
      "8ee)L": 3889,
      "2e- 2b-": 3890,
      "8bbn": 3891,
      ")JJk": 3892,
      "128cc": 3893,
      "8EE ": 3894,
      " 16fff": 3895,
      "8bb[": 3896,
      "4BB- 4d": 3897,
      "2b)": 3898,
      "16d# ": 3899,
      "4.a#": 3900,
      " 4dd-": 3901,
      "8e[ ": 3902,
      "8aL 8dd": 3903,
      "8fL 8ee": 3904,
      "32aaLLL": 3905,
      "4.AA 4.A": 3906,
      "4EEE 4EE": 3907,
      "- 8gg": 3908,
      "16ee-(LL": 3909,
      "2.AA- ": 3910,
      "24ffJJ": 3911,
      "4D# 4F#": 3912,
      "2Fn": 3913,
      "16ee-)JJ": 3914,
      "4EEn": 3915,
      " 8B 8d": 3916,
      "12cccL": 3917,
      " 4.bb": 3918,
      "8bb]": 3919,
      "12cc)J": 3920,
      "24ffLL": 3921,
      "4E 4A 4c": 3922,
      "- 4g-": 3923,
      "4.GGG": 3924,
      "4f# 4a 4dd": 3925,
      "4c# 4e 4a": 3926,
      "LLLLL": 3927,
      "8aa- ": 3928,
      "8GGGL 8GG": 3929,
      "8.EEL": 3930,
      "8eeL 8gg": 3931,
      "8.ccc#": 3932,
      "2c-": 3933,
      "4.b(": 3934,
      "8A(": 3935,
      "16GG-LL": 3936,
      "12f ": 3937,
      "2.ee[": 3938,
      "8E 8G#": 3939,
      "16A-L": 3940,
      "8cc)L": 3941,
      "2c#]": 3942,
      "8.AAA": 3943,
      "qJJ": 3944,
      "8.aa-L": 3945,
      "2CC 2C": 3946,
      "8ff#L ": 3947,
      "2b 2dd": 3948,
      "1e 1g": 3949,
      "12ff#)J": 3950,
      "2.G[": 3951,
      "1b]": 3952,
      "8A 8c 8e": 3953,
      " 3": 3954,
      "16e[": 3955,
      "L 16ff": 3956,
      "8F#(L": 3957,
      "1.D": 3958,
      "4AA- 4C": 3959,
      " 16E 16A": 3960,
      "1.F": 3961,
      " 12d": 3962,
      " 24B": 3963,
      "16FFJk": 3964,
      "4A-)": 3965,
      "32b-LLL": 3966,
      "16f# 16a": 3967,
      "2A-]": 3968,
      "4.eee": 3969,
      "4.c]": 3970,
      "4.D#": 3971,
      " 4.ccc": 3972,
      "4c 4f#": 3973,
      "J 8GG": 3974,
      "4DD 4AA": 3975,
      "8B- 8f": 3976,
      "1.f": 3977,
      "16ccJk ": 3978,
      "16bnLL": 3979,
      "2A 2c#": 3980,
      "8DD# ": 3981,
      "2.dd]": 3982,
      "2.f]": 3983,
      "8bb-]L": 3984,
      "8A-]": 3985,
      "16e 16g": 3986,
      "8b-J 8dd": 3987,
      "4C 4F 4A": 3988,
      " 2.ff": 3989,
      "16dddL": 3990,
      "128c": 3991,
      "2.G#": 3992,
      "2aa[": 3993,
      "4B- 4g": 3994,
      "8ddd#J": 3995,
      " 8.B": 3996,
      "16F 16A": 3997,
      "8e-J 8cc": 3998,
      "8E- 8A-": 3999
    },
    "merges": [
      [
        "1",
        "6"
      ],
      [
        "c",
        "c"
      ],
      [
        "d",
        "d"
      ],
      [
        "e",
        "e"
      ],
      [
        "f",
        "#"
      ],
      [
        "8",
        "g"
      ],
      [
        "8",
        "a"
      ],
      [
        "8",
        "b"
      ],
      [
        " ",
        "4"
      ],
      [
        "J",
        "J"
      ],
      [
        "8",
        "f"
      ],
      [
        "8",
        "dd"
      ],
      [
        "8",
        "cc"
      ],
      [
        "L",
        "L"
      ],
      [
        "1",
        "r"
      ],
      [
        "8",
        "ee"
      ],
      [
        "8",
        "r"
      ],
      [
        "B",
        "-"
      ],
      [
        "4",
        "r"
      ],
      [
        "4",
        "."
      ],
      [
        "8",
        "."
      ],
      [
        "8",
        "e"
      ],
      [
        "b",
        "-"
      ],
      [
        "2",
        "."
      ],
      [
        "8",
        "d"
      ],
      [
        "g",
        "g"
      ],
      [
        "1",
        "2"
      ],
      [
        "8g",
        "g"
      ],
      [
        "8",
        "A"
      ],
      [
        "4",
        "a"
      ],
      [
        "8",
        "G"
      ],
      [
        "3",
        "2"
      ],
      [
        "4",
        "f"
      ],
      [
        "16",
        "a"
      ],
      [
        "4",
        "e"
      ],
      [
        "J",
        "k"
      ],
      [
        "8",
        "c"
      ],
      [
        "4",
        "g"
      ],
      [
        "8f",
        "f#"
      ],
      [
        "16",
        "cc"
      ],
      [
        "16",
        "f"
      ],
      [
        "8",
        "B"
      ],
      [
        "8",
        "f#"
      ],
      [
        "4",
        "d"
      ],
      [
        "8",
        "F"
      ],
      [
        "4",
        "cc"
      ],
      [
        "4",
        "dd"
      ],
      [
        "4",
        "A"
      ],
      [
        "8a",
        "a"
      ],
      [
        "2",
        "r"
      ],
      [
        "16",
        "dd"
      ],
      [
        "8",
        "E"
      ],
      [
        "4",
        "G"
      ],
      [
        "16",
        "b"
      ],
      [
        "-",
        "L"
      ],
      [
        "*",
        "c"
      ],
      [
        "e",
        "f"
      ],
      [
        "l",
        "ef"
      ],
      [
        "*c",
        "lef"
      ],
      [
        "16",
        "ee"
      ],
      [
        "8cc",
        "#"
      ],
      [
        "4",
        "b"
      ],
      [
        "8",
        "D"
      ],
      [
        "*",
        "k"
      ],
      [
        "*k",
        "["
      ],
      [
        "8a",
        "J"
      ],
      [
        "4",
        "c"
      ],
      [
        "*",
        "-"
      ],
      [
        "8dd",
        "L"
      ],
      [
        "*",
        "M"
      ],
      [
        "-",
        "J"
      ],
      [
        "8dd",
        "J"
      ],
      [
        "8a",
        "L"
      ],
      [
        "8f",
        "f"
      ],
      [
        "4",
        "F"
      ],
      [
        " ",
        "2"
      ],
      [
        "16",
        "g"
      ],
      [
        "16",
        "e"
      ],
      [
        "4",
        "B"
      ],
      [
        "8",
        "C"
      ],
      [
        "4",
        "ee"
      ],
      [
        "L",
        " "
      ],
      [
        "=",
        "="
      ],
      [
        "c",
        "#"
      ],
      [
        "8b",
        "L"
      ],
      [
        "8g",
        "J"
      ],
      [
        "4",
        "E"
      ],
      [
        "A",
        "A"
      ],
      [
        "8b",
        "J"
      ],
      [
        "8ee",
        "L"
      ],
      [
        "16",
        "gg"
      ],
      [
        "4",
        "D"
      ],
      [
        "16",
        "r"
      ],
      [
        "*clef",
        "G"
      ],
      [
        "2.",
        "r"
      ],
      [
        "f",
        "f"
      ],
      [
        "*clefG",
        "2"
      ],
      [
        "e",
        "-"
      ],
      [
        "/",
        "4"
      ],
      [
        "16",
        "d"
      ],
      [
        "(",
        "L"
      ],
      [
        "8ee",
        "J"
      ],
      [
        "|",
        "!"
      ],
      [
        ":",
        "|!"
      ],
      [
        "=",
        ":|!"
      ],
      [
        "4",
        "C"
      ],
      [
        "#",
        "J"
      ],
      [
        "8",
        "B-"
      ],
      [
        "8g",
        "L"
      ],
      [
        "#",
        "L"
      ],
      [
        "G",
        "G"
      ],
      [
        "8cc",
        "J"
      ],
      [
        "8cc",
        "L"
      ],
      [
        "4",
        "gg"
      ],
      [
        "F",
        "#"
      ],
      [
        "8e",
        "J"
      ],
      [
        ")",
        "J"
      ],
      [
        "-",
        " "
      ],
      [
        "8A",
        "A"
      ],
      [
        "8gg",
        "L"
      ],
      [
        "a",
        "-"
      ],
      [
        "16",
        "B"
      ],
      [
        "8d",
        "J"
      ],
      [
        "8gg",
        "J"
      ],
      [
        "*",
        "v"
      ],
      [
        "8e",
        "L"
      ],
      [
        "4",
        "f#"
      ],
      [
        "*k[",
        "f#"
      ],
      [
        "4",
        "b-"
      ],
      [
        "2",
        "g"
      ],
      [
        "2",
        "d"
      ],
      [
        "J",
        " "
      ],
      [
        "E",
        "-"
      ],
      [
        "16",
        "A"
      ],
      [
        "8b",
        "-"
      ],
      [
        "8ff#",
        "L"
      ],
      [
        " 4",
        "."
      ],
      [
        "]",
        "L"
      ],
      [
        "8G",
        "G"
      ],
      [
        "16f",
        "f#"
      ],
      [
        "a",
        "a"
      ],
      [
        "16f",
        "f"
      ],
      [
        "8ff#",
        "J"
      ],
      [
        "16",
        "G"
      ],
      [
        "4",
        "B-"
      ],
      [
        "8d",
        "L"
      ],
      [
        "*",
        "p"
      ],
      [
        "a",
        "r"
      ],
      [
        "*p",
        "ar"
      ],
      [
        "*par",
        "t"
      ],
      [
        "*M",
        "4"
      ],
      [
        "8B",
        "B"
      ],
      [
        "16",
        "c"
      ],
      [
        "16a",
        "a"
      ],
      [
        "-",
        " 4"
      ],
      [
        "*M4",
        "/4"
      ],
      [
        "8f#",
        "J"
      ],
      [
        "2",
        "a"
      ],
      [
        "8b",
        "b"
      ],
      [
        "16",
        "f#"
      ],
      [
        "*k[",
        "b-"
      ],
      [
        "|",
        ":"
      ],
      [
        "#",
        " "
      ],
      [
        "16",
        "b-"
      ],
      [
        "K",
        "L"
      ],
      [
        "4A",
        "A"
      ],
      [
        "2",
        "cc"
      ],
      [
        " ",
        "1"
      ],
      [
        "16",
        "D"
      ],
      [
        "4f",
        "f"
      ],
      [
        "q",
        "q"
      ],
      [
        "[",
        "J"
      ],
      [
        "2",
        "A"
      ],
      [
        "2",
        "e"
      ],
      [
        "2",
        "f"
      ],
      [
        "8aa",
        "L"
      ],
      [
        "2",
        "c"
      ],
      [
        "16",
        "F"
      ],
      [
        "8cc#",
        "J"
      ],
      [
        "16cc",
        "#"
      ],
      [
        "8f#",
        "L"
      ],
      [
        "2",
        "G"
      ],
      [
        "8f",
        "J"
      ],
      [
        "16",
        "E"
      ],
      [
        "4a",
        "a"
      ],
      [
        "*clef",
        "F"
      ],
      [
        "B",
        "B"
      ],
      [
        "*clefF",
        "4"
      ],
      [
        "4G",
        "G"
      ],
      [
        "f",
        "f#"
      ],
      [
        "8f",
        "L"
      ],
      [
        "#",
        " 4"
      ],
      [
        "16",
        "C"
      ],
      [
        "8B",
        "B-"
      ],
      [
        "4f",
        "f#"
      ],
      [
        "*",
        "^"
      ],
      [
        "=",
        "|"
      ],
      [
        "=|",
        "|"
      ],
      [
        "*k[f#",
        "c#"
      ],
      [
        "8F",
        "F"
      ],
      [
        "-",
        "]"
      ],
      [
        "8cc#",
        "L"
      ],
      [
        "8",
        "qq"
      ],
      [
        "2",
        "dd"
      ],
      [
        "2",
        "D"
      ],
      [
        "8e",
        "-"
      ],
      [
        "#",
        "]"
      ],
      [
        "8aa",
        "J"
      ],
      [
        "B",
        "B-"
      ],
      [
        "2",
        "F"
      ],
      [
        "*k[b-",
        "e-"
      ],
      [
        "4e",
        "-"
      ],
      [
        " ",
        "2."
      ],
      [
        "-",
        "JJ"
      ],
      [
        "=:|!",
        "|:"
      ],
      [
        "(",
        "LL"
      ],
      [
        "8.",
        "dd"
      ],
      [
        "4cc",
        "#"
      ],
      [
        "*M",
        "2"
      ],
      [
        "8c",
        "J"
      ],
      [
        "8E",
        "E"
      ],
      [
        "8.",
        "a"
      ],
      [
        "8b",
        "-J"
      ],
      [
        "-",
        "LL"
      ],
      [
        "4B",
        "B-"
      ],
      [
        "8c",
        "L"
      ],
      [
        "8ff",
        "L"
      ],
      [
        "16",
        "B-"
      ],
      [
        "8b",
        "-L"
      ],
      [
        "8D",
        "D"
      ],
      [
        "2",
        "C"
      ],
      [
        "8.",
        "cc"
      ],
      [
        ")",
        "JJ"
      ],
      [
        "*k[",
        "]"
      ],
      [
        "8ff",
        "J"
      ],
      [
        "2",
        "b"
      ],
      [
        "4.",
        "g"
      ],
      [
        "#",
        "JJ"
      ],
      [
        "*M",
        "3"
      ],
      [
        "16",
        "AA"
      ],
      [
        "8b",
        "b-"
      ],
      [
        " 4",
        "a"
      ],
      [
        "8.",
        "b"
      ],
      [
        " 4",
        "d"
      ],
      [
        "8A",
        "J"
      ],
      [
        "*",
        "s"
      ],
      [
        "*s",
        "t"
      ],
      [
        " 4",
        "cc"
      ],
      [
        " 4",
        "A"
      ],
      [
        "4B",
        "B"
      ],
      [
        "2",
        "E"
      ],
      [
        "*k[f#",
        "]"
      ],
      [
        "8G",
        "J"
      ],
      [
        "8.",
        "ee"
      ],
      [
        " 4",
        "g"
      ],
      [
        "8ee",
        "-"
      ],
      [
        "8cc",
        "c"
      ],
      [
        "8A",
        "L"
      ],
      [
        "a",
        "ff"
      ],
      [
        "*st",
        "aff"
      ],
      [
        "12",
        "cc"
      ],
      [
        "8.",
        "g"
      ],
      [
        "4.",
        "dd"
      ],
      [
        "4.",
        "a"
      ],
      [
        "8G",
        "L"
      ],
      [
        "16cc",
        "JJ"
      ],
      [
        "16dd",
        "JJ"
      ],
      [
        "/",
        "8"
      ],
      [
        " 4",
        "G"
      ],
      [
        "16a",
        "JJ"
      ],
      [
        " 4",
        "c"
      ],
      [
        "[",
        " "
      ],
      [
        "2",
        "ee"
      ],
      [
        "8c",
        "#"
      ],
      [
        "#",
        "LL"
      ],
      [
        "12",
        "b"
      ],
      [
        "8C",
        "C"
      ],
      [
        "8a",
        "-"
      ],
      [
        "8dd",
        "d"
      ],
      [
        "*k[b-e-",
        "a-"
      ],
      [
        "32",
        "e"
      ],
      [
        "16b",
        "b"
      ],
      [
        "*part",
        "1"
      ],
      [
        "*M3",
        "/4"
      ],
      [
        "12",
        "dd"
      ],
      [
        "4.",
        "cc"
      ],
      [
        "4F",
        "F"
      ],
      [
        "*k[f#c#",
        "]"
      ],
      [
        "2",
        "B"
      ],
      [
        "8F",
        "#"
      ],
      [
        "4F",
        "#"
      ],
      [
        " ",
        "8g"
      ],
      [
        "JJ",
        "J"
      ],
      [
        "16",
        "GG"
      ],
      [
        "16b",
        "JJ"
      ],
      [
        "4.",
        "d"
      ],
      [
        "1",
        "."
      ],
      [
        " 4",
        "dd"
      ],
      [
        "2",
        "B-"
      ],
      [
        "16",
        "c#"
      ],
      [
        "LL",
        "L"
      ],
      [
        " ",
        "8d"
      ],
      [
        "16dd",
        "LL"
      ],
      [
        "12",
        "a"
      ],
      [
        "16a",
        "LL"
      ],
      [
        "16",
        "."
      ],
      [
        "16g",
        "JJ"
      ],
      [
        "4c",
        "#"
      ],
      [
        "8E",
        "-"
      ],
      [
        "8.",
        "e"
      ],
      [
        "8B",
        "J"
      ],
      [
        "4E",
        "-"
      ],
      [
        "2",
        "b-"
      ],
      [
        "16ee",
        "JJ"
      ],
      [
        "8.dd",
        "L"
      ],
      [
        "16cc",
        "LL"
      ],
      [
        "4ee",
        "-"
      ],
      [
        "16e",
        "JJ"
      ],
      [
        " 4",
        "b"
      ],
      [
        "!",
        "|:"
      ],
      [
        "=",
        "!|:"
      ],
      [
        "8D",
        "L"
      ],
      [
        "8D",
        "J"
      ],
      [
        " ",
        "8cc"
      ],
      [
        "/",
        "2"
      ],
      [
        "16b",
        "LL"
      ],
      [
        "2",
        "AA"
      ],
      [
        "8A",
        "-"
      ],
      [
        "Jk",
        " "
      ],
      [
        "4a",
        "-"
      ],
      [
        "12",
        "ee"
      ],
      [
        "*M2",
        "/4"
      ],
      [
        "32",
        "cc"
      ],
      [
        "4.",
        "b"
      ],
      [
        "*M",
        "6"
      ],
      [
        " ",
        "8a"
      ],
      [
        "1",
        "d"
      ],
      [
        "4.",
        "r"
      ],
      [
        "16",
        "F#"
      ],
      [
        "*k[b-",
        "]"
      ],
      [
        "*k[f#c#",
        "g"
      ],
      [
        "8B",
        "L"
      ],
      [
        "4D",
        "D"
      ],
      [
        "8e",
        "-J"
      ],
      [
        "8.a",
        "L"
      ],
      [
        "F",
        "F"
      ],
      [
        "8.",
        "gg"
      ],
      [
        "8g",
        "#"
      ],
      [
        "8B-",
        "J"
      ],
      [
        "4.",
        "e"
      ],
      [
        "8F",
        "J"
      ],
      [
        "16ee",
        "LL"
      ],
      [
        "0",
        "r"
      ],
      [
        " ",
        "8c"
      ],
      [
        "2",
        "f#"
      ],
      [
        "8e",
        "-L"
      ],
      [
        "8.",
        "d"
      ],
      [
        " 4",
        "e"
      ],
      [
        "8F",
        "L"
      ],
      [
        "16cc",
        "c"
      ],
      [
        "1",
        "g"
      ],
      [
        "8B-",
        "L"
      ],
      [
        "8E",
        "J"
      ],
      [
        "*M6",
        "/8"
      ],
      [
        "-",
        "["
      ],
      [
        "4.",
        "ee"
      ],
      [
        "16b",
        "b-"
      ],
      [
        "12",
        "g"
      ],
      [
        " ",
        "8ee"
      ],
      [
        " ",
        "8gg"
      ],
      [
        "32",
        "r"
      ],
      [
        "16dd",
        "d"
      ],
      [
        " 4",
        "f"
      ],
      [
        "16gg",
        "JJ"
      ],
      [
        "8C",
        "L"
      ],
      [
        "16a",
        "Jk"
      ],
      [
        "16g",
        "LL"
      ],
      [
        "4E",
        "E"
      ],
      [
        "16e",
        "LL"
      ],
      [
        "A",
        "-"
      ],
      [
        " 4",
        "ee"
      ],
      [
        "12",
        "e"
      ],
      [
        "16B",
        "B"
      ],
      [
        "4A",
        "-"
      ],
      [
        "n",
        "L"
      ],
      [
        "32",
        "b"
      ],
      [
        "2",
        "e-"
      ],
      [
        "*M2",
        "/2"
      ],
      [
        "1",
        "G"
      ],
      [
        "8bb",
        "L"
      ],
      [
        "8E",
        "L"
      ],
      [
        "*part",
        "2"
      ],
      [
        "16f",
        "JJ"
      ],
      [
        "1",
        "D"
      ],
      [
        "t",
        "("
      ],
      [
        "16e",
        "-"
      ],
      [
        " 4",
        "B-"
      ],
      [
        " ",
        "8e"
      ],
      [
        " 4",
        "B"
      ],
      [
        "4b",
        "b"
      ],
      [
        " ",
        "8dd"
      ],
      [
        "*",
        "m"
      ],
      [
        "e",
        "t("
      ],
      [
        "*m",
        "et("
      ],
      [
        "16dd",
        "Jk"
      ],
      [
        "4g",
        "#"
      ],
      [
        "2",
        "GG"
      ],
      [
        "]",
        "LL"
      ],
      [
        "8C",
        "J"
      ],
      [
        "16d",
        "JJ"
      ],
      [
        "d",
        "-"
      ],
      [
        "16ee",
        "-"
      ],
      [
        "4.",
        "f"
      ],
      [
        "1",
        "c"
      ],
      [
        "E",
        "E"
      ],
      [
        "12",
        "gg"
      ],
      [
        "*met(",
        "c"
      ],
      [
        "1",
        "A"
      ],
      [
        " ",
        "8G"
      ],
      [
        "[",
        "JJ"
      ],
      [
        "16B",
        "B-"
      ],
      [
        "32",
        "dd"
      ],
      [
        "4C",
        "C"
      ],
      [
        "16gg",
        "LL"
      ],
      [
        " ",
        "6"
      ],
      [
        " ",
        "8A"
      ],
      [
        "16",
        "E-"
      ],
      [
        "8.ee",
        "L"
      ],
      [
        "1",
        "e"
      ],
      [
        "32",
        "ee"
      ],
      [
        "8.b",
        "L"
      ],
      [
        "1",
        "a"
      ],
      [
        "n",
        "J"
      ],
      [
        "16b",
        "Jk"
      ],
      [
        "8.",
        "f"
      ],
      [
        "*k[b-e-",
        "]"
      ],
      [
        "8ee",
        "-L"
      ],
      [
        "1",
        "C"
      ],
      [
        "#",
        "["
      ],
      [
        "8.",
        "aa"
      ],
      [
        "2.",
        "g"
      ],
      [
        "4.",
        "c"
      ],
      [
        "16d",
        "LL"
      ],
      [
        " ",
        "8f"
      ],
      [
        "8ee",
        "-J"
      ],
      [
        "12",
        "d"
      ],
      [
        "8.g",
        "L"
      ],
      [
        "16f",
        "LL"
      ],
      [
        "4.",
        "gg"
      ],
      [
        "1.",
        "r"
      ],
      [
        "4e",
        "- 4"
      ],
      [
        "4.",
        "G"
      ],
      [
        "16ee",
        "Jk"
      ],
      [
        " ",
        "8b"
      ],
      [
        "]",
        "JJ"
      ],
      [
        "8AA",
        "L"
      ],
      [
        "4.",
        "D"
      ],
      [
        "32",
        "a"
      ],
      [
        "1",
        "f"
      ],
      [
        " 4",
        "b-"
      ],
      [
        "2.",
        "d"
      ],
      [
        "8A",
        "AA"
      ],
      [
        "[",
        "Jk"
      ],
      [
        "2",
        "gg"
      ],
      [
        "1",
        "cc"
      ],
      [
        "16g",
        "Jk"
      ],
      [
        "8GG",
        "L"
      ],
      [
        "8.cc",
        "L"
      ],
      [
        "8g",
        "#J"
      ],
      [
        "2",
        "ff"
      ],
      [
        "8.",
        "ff#"
      ],
      [
        " ",
        "8ff"
      ],
      [
        "8bb",
        "J"
      ],
      [
        "8c",
        "#J"
      ],
      [
        " 4",
        "F"
      ],
      [
        "16ff#",
        "JJ"
      ],
      [
        "16cc",
        "Jk"
      ],
      [
        "8gg",
        "#"
      ],
      [
        "16ff",
        "JJ"
      ],
      [
        "32",
        "g"
      ],
      [
        "16c",
        "JJ"
      ],
      [
        "8F",
        "#J"
      ],
      [
        "16F",
        "F"
      ],
      [
        "4.",
        "A"
      ],
      [
        ")",
        "L"
      ],
      [
        "4E",
        "- 4"
      ],
      [
        "2",
        "BB-"
      ],
      [
        "16b-",
        "JJ"
      ],
      [
        "16g",
        "#"
      ],
      [
        "1",
        "F"
      ],
      [
        "]",
        " "
      ],
      [
        "8a",
        "-L"
      ],
      [
        "8C",
        "#"
      ],
      [
        "32",
        "gg"
      ],
      [
        "8.",
        "f#"
      ],
      [
        "4b",
        "b-"
      ],
      [
        "4cc",
        "c"
      ],
      [
        "2.",
        "a"
      ],
      [
        "8E",
        "-L"
      ],
      [
        "8E",
        "-J"
      ],
      [
        "8AA",
        "J"
      ],
      [
        "LL",
        " "
      ],
      [
        "6",
        "4r"
      ],
      [
        "8ee",
        "e"
      ],
      [
        "4.",
        "C"
      ],
      [
        "12",
        "ff#"
      ],
      [
        "8a",
        "-J"
      ],
      [
        " 4",
        "gg"
      ],
      [
        "16a",
        "-"
      ],
      [
        "8d",
        "-"
      ],
      [
        "16cc#",
        "JJ"
      ],
      [
        "16f#",
        "JJ"
      ],
      [
        "8G",
        "#"
      ],
      [
        "2.",
        "cc"
      ],
      [
        "8.gg",
        "L"
      ],
      [
        "*k[b-e-a-",
        "]"
      ],
      [
        "*k[f#c#g",
        "#]"
      ],
      [
        "1",
        "E"
      ],
      [
        "2",
        "E-"
      ],
      [
        "8.",
        "ff"
      ],
      [
        "2cc",
        "c"
      ],
      [
        "2",
        "BB"
      ],
      [
        "16a",
        "a-"
      ],
      [
        "16E",
        "E"
      ],
      [
        "8c",
        "#L"
      ],
      [
        " 4",
        "D"
      ],
      [
        "8g",
        "#L"
      ],
      [
        "16D",
        "D"
      ],
      [
        "8f",
        "L "
      ],
      [
        "*met(c",
        ")"
      ],
      [
        "4.",
        "F"
      ],
      [
        " 4",
        "f#"
      ],
      [
        "4C",
        "#"
      ],
      [
        "8BB-",
        "L"
      ],
      [
        "#",
        "d"
      ],
      [
        "*k[f#c#g",
        "#d"
      ],
      [
        "16ff",
        "LL"
      ],
      [
        "4G",
        "#"
      ],
      [
        "8.",
        "c"
      ],
      [
        "4d",
        "-"
      ],
      [
        "2.",
        "dd"
      ],
      [
        "1",
        "AA"
      ],
      [
        "2.",
        "e"
      ],
      [
        "2.",
        "c"
      ],
      [
        "16",
        "qq"
      ],
      [
        "4.",
        "b-"
      ],
      [
        "16ff#",
        "LL"
      ],
      [
        "2",
        "c#"
      ],
      [
        " ",
        "8B"
      ],
      [
        " 4",
        "E"
      ],
      [
        "16aa",
        "JJ"
      ],
      [
        "8dd",
        "-"
      ],
      [
        "16aa",
        "LL"
      ],
      [
        "8F",
        "F#"
      ],
      [
        "1",
        "dd"
      ],
      [
        "8GG",
        "J"
      ],
      [
        "16A",
        "JJ"
      ],
      [
        "16c",
        "LL"
      ],
      [
        "8.",
        "b-"
      ],
      [
        " 4",
        "ff"
      ],
      [
        " ",
        "8aa"
      ],
      [
        "*staff",
        "3"
      ],
      [
        "16G",
        "JJ"
      ],
      [
        "8.e",
        "L"
      ],
      [
        "2.",
        "G"
      ],
      [
        "8F",
        "#L"
      ],
      [
        " 2",
        "g"
      ],
      [
        "8.",
        "A"
      ],
      [
        "8A",
        "-J"
      ],
      [
        " ",
        "8B-"
      ],
      [
        "4F",
        "F#"
      ],
      [
        " 4",
        "e-"
      ],
      [
        "12",
        "f"
      ],
      [
        "12",
        "f#"
      ],
      [
        " 2",
        "G"
      ],
      [
        "2.",
        "f"
      ],
      [
        "8qq",
        "gg"
      ],
      [
        "2.",
        "D"
      ],
      [
        "32",
        "d"
      ],
      [
        "8G",
        "GG"
      ],
      [
        "2",
        "F#"
      ],
      [
        " 2",
        "cc"
      ],
      [
        "8BB",
        "J"
      ],
      [
        "*k[b-e-a-",
        "d-"
      ],
      [
        "*k[b-e-a-d-",
        "g"
      ],
      [
        "8cc",
        "c#"
      ],
      [
        "8BB",
        "L"
      ],
      [
        "16b-",
        "LL"
      ],
      [
        "4f",
        " 4a"
      ],
      [
        "16gg",
        "Jk"
      ],
      [
        "4E",
        "E-"
      ],
      [
        " ",
        "16gg"
      ],
      [
        "12",
        "aa"
      ],
      [
        "4.",
        "f#"
      ],
      [
        "8.",
        "G"
      ],
      [
        "4e",
        " 4g"
      ],
      [
        "4dd",
        "d"
      ],
      [
        "*part",
        "3"
      ],
      [
        "ee",
        "-"
      ],
      [
        "8BB-",
        "J"
      ],
      [
        "8A",
        "-L"
      ],
      [
        "8BB",
        "B-"
      ],
      [
        "16A",
        "LL"
      ],
      [
        ")",
        "Jk"
      ],
      [
        "8.d",
        "L"
      ],
      [
        "16f#",
        "LL"
      ],
      [
        "4.",
        "ff"
      ],
      [
        "16e",
        "Jk"
      ],
      [
        "2ccc",
        "T"
      ],
      [
        "1",
        "GG"
      ],
      [
        "8bb-",
        "L"
      ],
      [
        "8gg",
        "#J"
      ],
      [
        "16ff#",
        "Jk"
      ],
      [
        "4F",
        " 4A"
      ],
      [
        "8dd",
        "#"
      ],
      [
        "16C",
        "C"
      ],
      [
        " 2",
        "A"
      ],
      [
        "6",
        "4e"
      ],
      [
        "8AA",
        "-"
      ],
      [
        "1",
        "b"
      ],
      [
        "4AA",
        "-"
      ],
      [
        "8d",
        "#"
      ],
      [
        "4.",
        "AA"
      ],
      [
        "4A",
        "AA"
      ],
      [
        "2.",
        "A"
      ],
      [
        "16dd",
        "L"
      ],
      [
        "8BB",
        "B"
      ],
      [
        "8.aa",
        "L"
      ],
      [
        "12",
        "G"
      ],
      [
        "8.",
        "r"
      ],
      [
        "8.ff#",
        "L"
      ],
      [
        "2.",
        "C"
      ],
      [
        " 2",
        "a"
      ],
      [
        "12",
        "r"
      ],
      [
        "[",
        "LL"
      ],
      [
        "4.",
        "B-"
      ],
      [
        " ",
        "8f#"
      ],
      [
        "16cc#",
        "LL"
      ],
      [
        "16gg",
        "#"
      ],
      [
        "16A",
        "-"
      ],
      [
        "32",
        "ff"
      ],
      [
        "1",
        "B"
      ],
      [
        "4g",
        "]"
      ],
      [
        "16a",
        "L"
      ],
      [
        "12",
        "A"
      ],
      [
        "12dd",
        "J"
      ],
      [
        "16b",
        "L"
      ],
      [
        " ",
        "8D"
      ],
      [
        "4.",
        "aa"
      ],
      [
        " 2",
        "c"
      ],
      [
        "16G",
        "LL"
      ],
      [
        "8F",
        "# "
      ],
      [
        "8FF",
        "L"
      ],
      [
        "12",
        "ff"
      ],
      [
        "32",
        "f"
      ],
      [
        "16B",
        "JJ"
      ],
      [
        " ",
        "8b-"
      ],
      [
        "8f",
        "J "
      ],
      [
        " 2",
        "d"
      ],
      [
        "4.",
        "E"
      ],
      [
        " 4",
        "C"
      ],
      [
        " ",
        "8E"
      ],
      [
        "2",
        "a-"
      ],
      [
        "8.",
        "D"
      ],
      [
        "4dd",
        "-"
      ],
      [
        "8e",
        "- "
      ],
      [
        "2",
        "aa"
      ],
      [
        "d",
        "-]"
      ],
      [
        "16d",
        "Jk"
      ],
      [
        " 4",
        "aa"
      ],
      [
        "16ee",
        "L"
      ],
      [
        " 4",
        "F#"
      ],
      [
        "16cc",
        "c#"
      ],
      [
        "16ee",
        "e"
      ],
      [
        "8bb-",
        "J"
      ],
      [
        "1",
        "B-"
      ],
      [
        "4F",
        "# 4"
      ],
      [
        "12b",
        "L"
      ],
      [
        "2F",
        "F"
      ],
      [
        "8.f",
        "L"
      ],
      [
        "*k[b-e-a-",
        "d-]"
      ],
      [
        "8ccc",
        "L"
      ],
      [
        "b",
        "b"
      ],
      [
        "JJ",
        "k"
      ],
      [
        "4d",
        "]"
      ],
      [
        "2cc",
        "#"
      ],
      [
        "4.",
        "e-"
      ],
      [
        "16f#",
        "Jk"
      ],
      [
        "*staff",
        "4"
      ],
      [
        "4.",
        "ff#"
      ],
      [
        "16e",
        "-JJ"
      ],
      [
        "-L",
        " "
      ],
      [
        "16a",
        "K"
      ],
      [
        "4d",
        "#"
      ],
      [
        "4a",
        "]"
      ],
      [
        "12",
        "D"
      ],
      [
        "12",
        "c"
      ],
      [
        "12",
        "b-"
      ],
      [
        "16cc#",
        "Jk"
      ],
      [
        "8E",
        "E-"
      ],
      [
        "8dd",
        "(L"
      ],
      [
        "4E",
        " 4G"
      ],
      [
        "32",
        "D"
      ],
      [
        "32",
        "C"
      ],
      [
        " 2",
        "dd"
      ],
      [
        "*part",
        "4"
      ],
      [
        "]",
        "L "
      ],
      [
        "16B-",
        "JJ"
      ],
      [
        "2.",
        "F"
      ],
      [
        " ",
        "16cc"
      ],
      [
        "4.",
        "B"
      ],
      [
        "8a",
        "(L"
      ],
      [
        "8aa",
        "-"
      ],
      [
        "16cc",
        "L"
      ],
      [
        "8d",
        "L "
      ],
      [
        "16D",
        "JJ"
      ],
      [
        "16dd",
        "K"
      ],
      [
        "]",
        " 1"
      ],
      [
        "8g",
        "-"
      ],
      [
        "8D",
        "-"
      ],
      [
        "32",
        "G"
      ],
      [
        "16f",
        "Jk"
      ],
      [
        "4.",
        "GG"
      ],
      [
        "16ee",
        "K"
      ],
      [
        "[",
        "L"
      ],
      [
        "8.",
        "E"
      ],
      [
        "[",
        " 1"
      ],
      [
        "2",
        "4cc"
      ],
      [
        "8gg",
        "#L"
      ],
      [
        "16ee",
        "-JJ"
      ],
      [
        "32",
        "aa"
      ],
      [
        "4d",
        " 4f"
      ],
      [
        "16dd",
        "#"
      ],
      [
        "2.",
        "b"
      ],
      [
        "8qq",
        "dd"
      ],
      [
        "8E",
        "- "
      ],
      [
        "12a",
        "J"
      ],
      [
        "4c",
        "# 4"
      ],
      [
        "2A",
        "-"
      ],
      [
        "8ccc",
        "J"
      ],
      [
        "16dd",
        "-"
      ],
      [
        "8.",
        "C"
      ],
      [
        "8.",
        "F"
      ],
      [
        "8a",
        ")J"
      ],
      [
        " ",
        "16a"
      ],
      [
        "8.f#",
        "L"
      ],
      [
        "2.",
        "E"
      ],
      [
        "4G",
        " 4B"
      ],
      [
        "8C",
        "#J"
      ],
      [
        "[",
        "J "
      ],
      [
        "32",
        "A"
      ],
      [
        "|",
        ")"
      ],
      [
        "(",
        "J"
      ],
      [
        "1",
        "b-"
      ],
      [
        "16B",
        "LL"
      ],
      [
        "2.",
        "AA"
      ],
      [
        "16G",
        "#"
      ],
      [
        "8EE",
        "L"
      ],
      [
        " 4",
        "c#"
      ],
      [
        "16b",
        "K"
      ],
      [
        "16F",
        "JJ"
      ],
      [
        "*met(c",
        "|)"
      ],
      [
        "16e",
        "L"
      ],
      [
        "8G",
        "#J"
      ],
      [
        "16E",
        "JJ"
      ],
      [
        " ",
        "8F"
      ],
      [
        "8.",
        "B"
      ],
      [
        "16F",
        "F#"
      ],
      [
        "n",
        "JJ"
      ],
      [
        "4D",
        "-"
      ],
      [
        "8DD",
        "L"
      ],
      [
        "32",
        "c"
      ],
      [
        "v",
        "2"
      ],
      [
        "*clefG",
        "v2"
      ],
      [
        "8dd",
        ")J"
      ],
      [
        "]",
        "KL"
      ],
      [
        "8ff",
        "f"
      ],
      [
        "]JJ",
        "k"
      ],
      [
        "8d",
        "-J"
      ],
      [
        "8c",
        "# "
      ],
      [
        " 4",
        "a-"
      ],
      [
        " ",
        "16d"
      ],
      [
        "16gg",
        "L"
      ],
      [
        "12a",
        "L"
      ],
      [
        "8.cc",
        "#L"
      ],
      [
        "8.ff",
        "L"
      ],
      [
        "12",
        "E"
      ],
      [
        "16B-",
        "LL"
      ],
      [
        " ",
        "8e-"
      ],
      [
        "16e",
        "-LL"
      ],
      [
        " ",
        "16ee"
      ],
      [
        "4g",
        "["
      ],
      [
        "2",
        "4a"
      ],
      [
        "2",
        "4ee"
      ],
      [
        "2f",
        "f#"
      ],
      [
        "8e",
        " 8g"
      ],
      [
        "8d",
        "-L"
      ],
      [
        "4f",
        "]"
      ],
      [
        "8G",
        "J "
      ],
      [
        "12",
        "C"
      ],
      [
        "16g",
        "L"
      ],
      [
        "8f",
        " 8a"
      ],
      [
        "2g",
        "#"
      ],
      [
        "32",
        "b-"
      ],
      [
        "4gg",
        "#"
      ],
      [
        "cc",
        "#"
      ],
      [
        "16ee",
        "-LL"
      ],
      [
        "12cc",
        "#"
      ],
      [
        "16D",
        "LL"
      ],
      [
        "8g",
        ")J"
      ],
      [
        "4d",
        " 4g"
      ],
      [
        "2",
        "4b"
      ],
      [
        "4c",
        "]"
      ],
      [
        "8A",
        " 8c"
      ],
      [
        "8FF",
        "J"
      ],
      [
        " 2",
        "e"
      ],
      [
        "12",
        "B"
      ],
      [
        "8b",
        "(L"
      ],
      [
        "8c",
        " 8e"
      ],
      [
        "2.",
        "ee"
      ],
      [
        "8cc",
        "L "
      ],
      [
        "16cc",
        "J"
      ],
      [
        "8.",
        "B-"
      ],
      [
        "16f",
        "ff"
      ],
      [
        " 2",
        "f"
      ],
      [
        "#",
        "a"
      ],
      [
        "*k[f#c#g#d",
        "#a"
      ],
      [
        "2ee",
        "-"
      ],
      [
        "1",
        "ee"
      ],
      [
        "16F",
        "LL"
      ],
      [
        "4c",
        " 4e"
      ],
      [
        "8.b-",
        "L"
      ],
      [
        "_",
        " "
      ],
      [
        "16C",
        "JJ"
      ],
      [
        "16aa",
        "Jk"
      ],
      [
        "4dd",
        "#"
      ],
      [
        "4e- 4",
        "g"
      ],
      [
        "*M3",
        "/8"
      ],
      [
        "4D",
        " 4A"
      ],
      [
        "4g",
        "-"
      ],
      [
        "4B",
        "BB-"
      ],
      [
        "1",
        "e-"
      ],
      [
        "4a",
        "a-"
      ],
      [
        " 2",
        "B"
      ],
      [
        "2",
        "4e"
      ],
      [
        " ",
        "16e"
      ],
      [
        "8dd",
        "#J"
      ],
      [
        " 2",
        "b"
      ],
      [
        "n",
        "["
      ],
      [
        "*k[f#c#g#d",
        "#]"
      ],
      [
        "4cc",
        "]"
      ],
      [
        "32",
        "ff#"
      ],
      [
        "8ee",
        "(L"
      ],
      [
        "16a",
        "J"
      ],
      [
        "8g",
        "gg"
      ],
      [
        "16b-",
        "Jk"
      ],
      [
        "12",
        "F"
      ],
      [
        "16d",
        "-"
      ],
      [
        "4d",
        "["
      ],
      [
        "16C",
        "#"
      ],
      [
        " 2",
        "B-"
      ],
      [
        "2.",
        "B-"
      ],
      [
        "4a",
        "["
      ],
      [
        "8g",
        "(L"
      ],
      [
        "4d",
        " 4f#"
      ],
      [
        "4g",
        " 4b"
      ],
      [
        "n",
        "LL"
      ],
      [
        "4G",
        "GG"
      ],
      [
        "- 4",
        "c"
      ],
      [
        "8ddd",
        "L"
      ],
      [
        "4A",
        " 4c"
      ],
      [
        "4e",
        "]"
      ],
      [
        "-",
        "c"
      ],
      [
        "4f#",
        " 4a"
      ],
      [
        "*k[b-e-a-d-g",
        "-c"
      ],
      [
        "8g",
        "L "
      ],
      [
        "2.",
        "GG"
      ],
      [
        "8G",
        "-"
      ],
      [
        "1",
        "BB"
      ],
      [
        "12dd",
        "L"
      ],
      [
        "2.",
        "b-"
      ],
      [
        "2g",
        "["
      ],
      [
        "8dd",
        "-L"
      ],
      [
        "4B",
        " 4d"
      ],
      [
        "8C",
        "#L"
      ],
      [
        "8a",
        "#"
      ],
      [
        "4dd",
        "]"
      ],
      [
        "2D",
        "D"
      ],
      [
        "16c#",
        "JJ"
      ],
      [
        "*",
        "X"
      ],
      [
        "16ff",
        "Jk"
      ],
      [
        "16a",
        "-JJ"
      ],
      [
        "16a",
        "KL"
      ],
      [
        " ",
        "8cc#"
      ],
      [
        "12ee",
        "L"
      ],
      [
        "1",
        "f#"
      ],
      [
        "8c",
        "L "
      ],
      [
        "16E",
        "LL"
      ],
      [
        "8cc",
        "(L"
      ],
      [
        "32",
        "f#"
      ],
      [
        "8G",
        "#L"
      ],
      [
        "~",
        "L"
      ],
      [
        "4a",
        " 4cc"
      ],
      [
        "2",
        "4dd"
      ],
      [
        " ",
        "16dd"
      ],
      [
        " ",
        "16ff"
      ],
      [
        "8dd",
        "-J"
      ],
      [
        "4C",
        " 4c"
      ],
      [
        "1",
        "BB-"
      ],
      [
        "8B",
        " 8d"
      ],
      [
        "16d",
        "#"
      ],
      [
        "8d",
        "#J"
      ],
      [
        "8D",
        "#"
      ],
      [
        " ",
        "8ff#"
      ],
      [
        "C",
        "#"
      ],
      [
        "16C",
        "LL"
      ],
      [
        "2.",
        "B"
      ],
      [
        "4C",
        " 4G"
      ],
      [
        "8c",
        "J "
      ],
      [
        "16g",
        "#JJ"
      ],
      [
        "8.",
        "AA"
      ],
      [
        "16b",
        "J"
      ],
      [
        "16gg",
        "g"
      ],
      [
        "8A",
        "- "
      ],
      [
        "4B",
        "BB"
      ],
      [
        "12",
        "B-"
      ],
      [
        "8b",
        "- "
      ],
      [
        "8ddd",
        "J"
      ],
      [
        "2d",
        "["
      ],
      [
        "16ee",
        "e-"
      ],
      [
        "8cc",
        ")J"
      ],
      [
        "8AA",
        "-L"
      ],
      [
        "8e",
        "L "
      ],
      [
        "4BB-",
        " 4B-"
      ],
      [
        " 4.",
        "g"
      ],
      [
        "4E- 4",
        "G"
      ],
      [
        "J ",
        "8G"
      ],
      [
        " 4.",
        "cc"
      ],
      [
        " ",
        "8C"
      ],
      [
        "12g",
        "J"
      ],
      [
        "8qq",
        "ee"
      ],
      [
        "8.c",
        "L"
      ],
      [
        "4.",
        "BB-"
      ],
      [
        "8cc",
        " 8gg"
      ],
      [
        "8EE",
        "J"
      ],
      [
        "2.",
        "e-"
      ],
      [
        "1",
        "FF"
      ],
      [
        "12ee",
        "J"
      ],
      [
        "12b",
        "J"
      ],
      [
        "4AA",
        "- 4"
      ],
      [
        "L ",
        "8G"
      ],
      [
        "8GG",
        "#"
      ],
      [
        "4F",
        " 4c"
      ],
      [
        " ",
        "16A"
      ],
      [
        "16ff#",
        "L"
      ],
      [
        "8qq",
        "g"
      ],
      [
        "4.cc",
        "#"
      ],
      [
        "*k[b-e-a-d-g",
        "-]"
      ],
      [
        "8b",
        ")J"
      ],
      [
        "L ",
        "8A"
      ],
      [
        "8CC",
        "L"
      ],
      [
        "L ",
        "8d"
      ],
      [
        "4f",
        "["
      ],
      [
        "2g",
        "]"
      ],
      [
        "8a",
        " 8cc"
      ],
      [
        "16dd",
        "J"
      ],
      [
        "32",
        "F"
      ],
      [
        "32",
        "B"
      ],
      [
        "16cc",
        "K"
      ],
      [
        "4GG",
        " 4G"
      ],
      [
        "16b",
        "KL"
      ],
      [
        "32",
        "E"
      ],
      [
        "2a",
        "["
      ],
      [
        " 2",
        "F"
      ],
      [
        "4.",
        "E-"
      ],
      [
        "_",
        "L"
      ],
      [
        "(",
        "["
      ],
      [
        "8FF",
        "F"
      ],
      [
        " 2",
        "b-"
      ],
      [
        " 4",
        "E-"
      ],
      [
        "4.",
        "BB"
      ],
      [
        "4G",
        " 4B-"
      ],
      [
        " 2",
        "E"
      ],
      [
        "2",
        "4gg"
      ],
      [
        " 4.",
        "dd"
      ],
      [
        "4c",
        "["
      ],
      [
        "[",
        " 2."
      ],
      [
        "8DD",
        "J"
      ],
      [
        " 4.",
        "G"
      ],
      [
        "2",
        "4g"
      ],
      [
        "16E",
        "E-"
      ],
      [
        "16F#",
        "JJ"
      ],
      [
        " 2",
        "D"
      ],
      [
        " 4.",
        "a"
      ],
      [
        "16bb",
        "LL"
      ],
      [
        "12",
        "AA"
      ],
      [
        "8AA",
        "-J"
      ],
      [
        "8dd",
        ")"
      ],
      [
        "12e",
        "J"
      ],
      [
        "4e",
        " 4cc"
      ],
      [
        "2.",
        "f#"
      ],
      [
        "8dd",
        "#L"
      ],
      [
        "4B-",
        " 4d"
      ],
      [
        "8F",
        " 8A"
      ],
      [
        "16bb",
        "JJ"
      ],
      [
        " 2",
        "ee"
      ],
      [
        "16a",
        "-LL"
      ],
      [
        " 4",
        "AA"
      ],
      [
        "12g",
        "L"
      ],
      [
        " ",
        "16g"
      ],
      [
        "2",
        "4r"
      ],
      [
        "8B-",
        " 8d"
      ],
      [
        "4E- 4",
        "B-"
      ],
      [
        "2d",
        "]"
      ],
      [
        "2E",
        "E"
      ],
      [
        "4F# 4",
        "A"
      ],
      [
        "8A",
        "J "
      ],
      [
        "4cc",
        "["
      ],
      [
        "4g",
        ")"
      ],
      [
        "16g",
        "K"
      ],
      [
        "12cc",
        "L"
      ],
      [
        "8A",
        "#"
      ],
      [
        "16d",
        "L"
      ],
      [
        "4C",
        "# 4"
      ],
      [
        "2.",
        "gg"
      ],
      [
        "8a",
        "]L"
      ],
      [
        "12cc",
        "J"
      ],
      [
        "8g",
        "]L"
      ],
      [
        " ",
        "8bb"
      ],
      [
        "4dd",
        "["
      ],
      [
        "8.b",
        "b"
      ],
      [
        "4e",
        "["
      ],
      [
        "4A",
        "]"
      ],
      [
        "16f",
        "L"
      ],
      [
        "8F",
        "J "
      ],
      [
        "2.",
        "."
      ],
      [
        "8",
        "v"
      ],
      [
        "8v",
        "a"
      ],
      [
        " 4.",
        "A"
      ],
      [
        "8.a",
        "J"
      ],
      [
        "4AA",
        " 4A"
      ],
      [
        "4G",
        "]"
      ],
      [
        " ",
        "8ddd"
      ],
      [
        "8ee",
        ")J"
      ],
      [
        "8qq",
        "cc"
      ],
      [
        "12d",
        "J"
      ],
      [
        "16c",
        "Jk"
      ],
      [
        "8a",
        ")"
      ],
      [
        "4e",
        " 4a"
      ],
      [
        "K",
        "L "
      ],
      [
        "32",
        "AA"
      ],
      [
        "12e",
        "L"
      ],
      [
        "16dd",
        "KL"
      ],
      [
        "8E",
        " 8G"
      ],
      [
        "]JJ",
        "Jk"
      ],
      [
        "4a",
        "#"
      ],
      [
        "12gg",
        "J"
      ],
      [
        " 4.",
        "c"
      ],
      [
        " 4",
        "ff#"
      ],
      [
        "16g",
        "J"
      ],
      [
        "4ee",
        "e"
      ],
      [
        "16ccc",
        "JJ"
      ],
      [
        "16bb-",
        "LL"
      ],
      [
        "2c",
        "["
      ],
      [
        "16AA",
        "A"
      ],
      [
        "8gg",
        "(L"
      ],
      [
        "8.",
        "c#"
      ],
      [
        "8.",
        "GG"
      ],
      [
        "4a",
        ")"
      ],
      [
        "8aa",
        "-L"
      ],
      [
        "2G",
        "#"
      ],
      [
        "8FF",
        "#L"
      ],
      [
        "4B",
        "n"
      ],
      [
        "16a",
        "#"
      ],
      [
        "4D",
        "#"
      ],
      [
        "2f",
        "["
      ],
      [
        "4b",
        "n"
      ],
      [
        "8FF",
        "#J"
      ],
      [
        " ",
        "16G"
      ],
      [
        "4d",
        ")"
      ],
      [
        "16g",
        "-"
      ],
      [
        "8D",
        "-J"
      ],
      [
        "2a",
        "]"
      ],
      [
        "8D",
        "-L"
      ],
      [
        "4G",
        "-"
      ],
      [
        "4.",
        "a-"
      ],
      [
        " 4.",
        "d"
      ],
      [
        "4D",
        " 4F#"
      ],
      [
        "2C",
        "#"
      ],
      [
        "16c#",
        "LL"
      ],
      [
        "]",
        " 2."
      ],
      [
        "16g",
        "#LL"
      ],
      [
        "16F#",
        "LL"
      ],
      [
        "*staff",
        "5"
      ],
      [
        "4GG",
        "#"
      ],
      [
        " ",
        "8ee-"
      ],
      [
        "16AA",
        "JJ"
      ],
      [
        "8g",
        "-J"
      ],
      [
        "2.",
        "ff"
      ],
      [
        "16ee",
        "J"
      ],
      [
        "8.cc",
        "#"
      ],
      [
        "*part",
        "5"
      ],
      [
        "2d",
        "-"
      ],
      [
        "4c",
        " 4f"
      ],
      [
        "8EE",
        "-L"
      ],
      [
        "4g",
        " 4b-"
      ],
      [
        " 4",
        "BB"
      ],
      [
        "8EE",
        "E"
      ],
      [
        "16gg",
        "J"
      ],
      [
        " 4cc",
        "c"
      ],
      [
        "8g",
        "-L"
      ],
      [
        "8aa",
        "-J"
      ],
      [
        "4d",
        "- 4"
      ],
      [
        "8d",
        "(L"
      ],
      [
        "8gg",
        "-"
      ],
      [
        "16B",
        "BB"
      ],
      [
        "16bb-",
        "JJ"
      ],
      [
        "1",
        "E-"
      ],
      [
        "_",
        " 1"
      ],
      [
        "# 4",
        "B"
      ],
      [
        "8d",
        "]L"
      ],
      [
        "(",
        "KL"
      ],
      [
        "2e",
        "["
      ],
      [
        "8D",
        "J "
      ],
      [
        "4g",
        "("
      ],
      [
        "8d",
        "#L"
      ],
      [
        "32b",
        "b"
      ],
      [
        "8a",
        "- "
      ],
      [
        "2AA",
        "-"
      ],
      [
        "16dd",
        "(LL"
      ],
      [
        "8d",
        ")J"
      ],
      [
        "8d",
        " 8f"
      ],
      [
        "2.",
        "BB-"
      ],
      [
        "16E-",
        "JJ"
      ],
      [
        "16e",
        "J"
      ],
      [
        "4.",
        "FF"
      ],
      [
        "4D",
        "- 4"
      ],
      [
        "16ff#",
        "K"
      ],
      [
        "12gg",
        "L"
      ],
      [
        "L ",
        "8c"
      ],
      [
        "8g",
        " 8b"
      ],
      [
        "4.ee",
        "-"
      ],
      [
        "2",
        "4f"
      ],
      [
        "8g",
        "[J"
      ],
      [
        "16ee",
        "KL"
      ],
      [
        "8.dd",
        "J"
      ],
      [
        "16AA",
        "LL"
      ],
      [
        "*staff",
        "1"
      ],
      [
        "2cc",
        "["
      ],
      [
        "2c",
        "]"
      ],
      [
        "4f",
        " 4dd"
      ],
      [
        "K",
        "LL"
      ],
      [
        "4G",
        " 4c"
      ],
      [
        "4cc",
        " 4ee"
      ],
      [
        "8dd",
        "]L"
      ],
      [
        "4c# 4",
        "e"
      ],
      [
        "4G",
        " 4d"
      ],
      [
        "4b",
        "]"
      ],
      [
        "2C",
        "C"
      ],
      [
        "12",
        "GG"
      ],
      [
        "4b-",
        "]"
      ],
      [
        "16ccc",
        "LL"
      ],
      [
        " ",
        "8ccc"
      ],
      [
        "*k[b-e-a-d-g-c",
        "-]"
      ],
      [
        "12b",
        "b"
      ],
      [
        "32",
        "GG"
      ],
      [
        "8F# ",
        "8A"
      ],
      [
        "~",
        "J"
      ],
      [
        "1",
        "F#"
      ],
      [
        "2",
        "4d"
      ],
      [
        "1",
        "ff"
      ],
      [
        "8f",
        "]L"
      ],
      [
        " ",
        "16f"
      ],
      [
        "4cc",
        "c#"
      ],
      [
        "8g",
        ")"
      ],
      [
        "8cc",
        "]L"
      ],
      [
        "16D",
        "-"
      ],
      [
        "16gg",
        "#JJ"
      ],
      [
        "4.",
        "c#"
      ],
      [
        "4d",
        " 4b"
      ],
      [
        "8.A",
        "L"
      ],
      [
        "]",
        "J"
      ],
      [
        "16gg",
        "K"
      ],
      [
        "8G",
        "# "
      ],
      [
        " 4b",
        "b"
      ],
      [
        "2f",
        "]"
      ],
      [
        "4a",
        "- 4"
      ],
      [
        "32",
        "e-"
      ],
      [
        "2e",
        "]"
      ],
      [
        "8f#",
        " 8a"
      ],
      [
        "8g",
        "["
      ],
      [
        "8d",
        "- "
      ],
      [
        "16f#",
        "L"
      ],
      [
        "16ff",
        "L"
      ],
      [
        "32",
        "B-"
      ],
      [
        "8e",
        "(L"
      ],
      [
        "12",
        "c#"
      ],
      [
        "4a",
        "("
      ],
      [
        " 2",
        "e-"
      ],
      [
        "4A",
        " 4d"
      ],
      [
        "16BB",
        "JJ"
      ],
      [
        "4.",
        "F#"
      ],
      [
        "8ee",
        ")"
      ],
      [
        "1",
        "c#"
      ],
      [
        "4d",
        " 4a"
      ],
      [
        "4e",
        ")"
      ],
      [
        "8gg",
        ")J"
      ],
      [
        "g",
        "#"
      ],
      [
        "1",
        "gg"
      ],
      [
        "D",
        "-"
      ],
      [
        " 2",
        "f#"
      ],
      [
        "8b",
        "n"
      ],
      [
        "16AA",
        "-"
      ],
      [
        "4e",
        "n"
      ],
      [
        "4g",
        " 4cc"
      ],
      [
        "12",
        "8r"
      ],
      [
        "2dd",
        "["
      ],
      [
        " 1",
        "A"
      ],
      [
        "8ff",
        "f#"
      ],
      [
        "1",
        "EE"
      ],
      [
        "4c",
        " 4e-"
      ],
      [
        "(",
        "L "
      ],
      [
        "16A",
        "-JJ"
      ],
      [
        "8C",
        "# "
      ],
      [
        " ",
        "16aa"
      ],
      [
        "8a",
        "[J"
      ],
      [
        "16GG",
        "JJ"
      ],
      [
        " ",
        "16E"
      ],
      [
        " 4dd",
        "d"
      ],
      [
        "4f",
        " 4cc"
      ],
      [
        " 4",
        "BB-"
      ],
      [
        "8ff#",
        "(L"
      ],
      [
        "*clef",
        "X"
      ],
      [
        "8qq",
        "a"
      ],
      [
        "8a",
        "#J"
      ],
      [
        " 2",
        "gg"
      ],
      [
        "2.",
        "BB"
      ],
      [
        "16cc",
        "#L"
      ],
      [
        "4G",
        "["
      ],
      [
        " ",
        "16B"
      ],
      [
        "4A",
        "["
      ],
      [
        "8CC",
        "J"
      ],
      [
        "8G",
        "L "
      ],
      [
        "4e- 4",
        "cc"
      ],
      [
        " ",
        "8a-"
      ],
      [
        "16dd",
        ")JJ"
      ],
      [
        "8e",
        "]L"
      ],
      [
        "4d",
        "("
      ],
      [
        "8ee",
        "e-"
      ],
      [
        "4f",
        " 4b-"
      ],
      [
        "16GG",
        "LL"
      ],
      [
        "8a",
        "["
      ],
      [
        "8e",
        ")J"
      ],
      [
        "16aa",
        "L"
      ],
      [
        "16b-",
        "L"
      ],
      [
        "16BB-",
        "LL"
      ],
      [
        "8g",
        "]"
      ],
      [
        "16E-",
        "LL"
      ],
      [
        "4DD",
        " 4D"
      ],
      [
        "#",
        "e"
      ],
      [
        "*k[f#c#g#d#a",
        "#e"
      ],
      [
        "12d",
        "L"
      ],
      [
        " ",
        "16c"
      ],
      [
        "8b",
        ")"
      ],
      [
        "16BB-",
        "JJ"
      ],
      [
        " ",
        "8c#"
      ],
      [
        "2A",
        "["
      ],
      [
        "8qq",
        "b"
      ],
      [
        "_",
        "L "
      ],
      [
        "8.G",
        "L"
      ],
      [
        "8cc",
        ")"
      ],
      [
        "4f 4a",
        " 4cc"
      ],
      [
        "16ff#",
        "J"
      ],
      [
        "8c# ",
        "8e"
      ],
      [
        "#JJ",
        "J"
      ],
      [
        "4.",
        "A-"
      ],
      [
        "4A",
        "#"
      ],
      [
        ")",
        "]"
      ],
      [
        "4D",
        " 4d"
      ],
      [
        " ",
        "16b"
      ],
      [
        " 1",
        "G"
      ],
      [
        "8aa",
        "a"
      ],
      [
        " 4.",
        "b"
      ],
      [
        "16dd",
        "#JJ"
      ],
      [
        "1D",
        "D"
      ],
      [
        "8.",
        "BB"
      ],
      [
        "2cc",
        "]"
      ],
      [
        "8G",
        " 8B"
      ],
      [
        "8qq",
        "aa"
      ],
      [
        "8g",
        "# "
      ],
      [
        "4FF",
        " 4F"
      ],
      [
        "2",
        "4ff"
      ],
      [
        "8e- ",
        "8g"
      ],
      [
        "16BB",
        "LL"
      ],
      [
        "# 4",
        "b"
      ],
      [
        "8f#",
        "L "
      ],
      [
        "32",
        "BB"
      ],
      [
        "4D",
        " 4F"
      ],
      [
        "8EE",
        "-J"
      ],
      [
        "4f",
        "ff"
      ],
      [
        " 4A",
        "-"
      ],
      [
        "8fL ",
        "8gg"
      ],
      [
        "16ddd",
        "JJ"
      ],
      [
        "8c",
        "]L"
      ],
      [
        "2",
        "0"
      ],
      [
        "4D",
        " 4G"
      ],
      [
        " 2",
        "F#"
      ],
      [
        "4CC",
        " 4C"
      ],
      [
        "4dd",
        ")"
      ],
      [
        "16g",
        "KL"
      ],
      [
        "4C",
        " 4E"
      ],
      [
        "*k[f#c#g#d#a",
        "#]"
      ],
      [
        "16b",
        "(LL"
      ],
      [
        "16ee",
        "(LL"
      ],
      [
        "L ",
        "8D"
      ],
      [
        " 4",
        "GG"
      ],
      [
        "8.g",
        "J"
      ],
      [
        " 4.",
        "B-"
      ],
      [
        "4dd",
        "("
      ],
      [
        "*clef",
        "C"
      ],
      [
        "4B-",
        "]"
      ],
      [
        "2G",
        "["
      ],
      [
        "4A",
        " 4c#"
      ],
      [
        " 4.",
        "e"
      ],
      [
        "16A",
        "Jk"
      ],
      [
        "4AA- 4",
        "A-"
      ],
      [
        "4ee",
        "]"
      ],
      [
        "12ff#",
        "L"
      ],
      [
        "32cc",
        "c"
      ],
      [
        "32",
        "c#"
      ],
      [
        " 1",
        "g"
      ],
      [
        " 4.",
        "f"
      ],
      [
        "16c",
        "L"
      ],
      [
        " 4ee",
        "-"
      ],
      [
        "16a",
        "(LL"
      ],
      [
        " 4b",
        "b-"
      ],
      [
        "8d",
        "[J"
      ],
      [
        " ",
        "8bb-"
      ],
      [
        "8f",
        ")J"
      ],
      [
        "8f#",
        "J "
      ],
      [
        "16e",
        "KL"
      ],
      [
        "12ff#",
        "J"
      ],
      [
        "4cc",
        ")"
      ],
      [
        "8f",
        "(L"
      ],
      [
        "16B",
        "BB-"
      ],
      [
        "# 4",
        "ee"
      ],
      [
        " ",
        "16b-"
      ],
      [
        "4F",
        "]"
      ],
      [
        "16cc",
        "KL"
      ],
      [
        "4c",
        ")"
      ],
      [
        "*M4",
        "/2"
      ],
      [
        "16ff",
        "f#"
      ],
      [
        "G",
        "#"
      ],
      [
        " 4.",
        "b-"
      ],
      [
        "16d",
        "J"
      ],
      [
        "16gg",
        "-"
      ],
      [
        "8d",
        " 8f#"
      ],
      [
        "8f#",
        ")J"
      ],
      [
        "2b",
        "b"
      ],
      [
        "8qqgg",
        "L"
      ],
      [
        "4E",
        " 4B"
      ],
      [
        "2A",
        "]"
      ],
      [
        " 4.",
        "B"
      ],
      [
        "8d",
        "["
      ],
      [
        " 2.",
        "A"
      ],
      [
        "16D",
        "#"
      ],
      [
        "2dd",
        "]"
      ],
      [
        "12f#",
        "J"
      ],
      [
        "16G",
        "#JJ"
      ],
      [
        "6",
        "cc"
      ],
      [
        "4A",
        "- 4c"
      ],
      [
        "8E- ",
        "8G"
      ],
      [
        "16cc",
        "#J"
      ],
      [
        "16G",
        "Jk"
      ],
      [
        "8cc",
        "[J"
      ],
      [
        "2.",
        "FF"
      ],
      [
        "16dd",
        "-JJ"
      ],
      [
        "8dd",
        "[J"
      ],
      [
        "8cc",
        " 8ee"
      ],
      [
        "16a",
        ")JJ"
      ],
      [
        " 4.",
        "ee"
      ],
      [
        "16cc#",
        "K"
      ],
      [
        "8e",
        "["
      ],
      [
        "8A",
        " 8d"
      ],
      [
        "12f#",
        "L"
      ],
      [
        "[",
        "K"
      ],
      [
        " 2",
        "A-"
      ],
      [
        "4f",
        ")"
      ],
      [
        "8.b",
        "J"
      ],
      [
        "2d",
        "#"
      ],
      [
        "8b",
        "]L"
      ],
      [
        "16A",
        "-LL"
      ],
      [
        "16ddd",
        "LL"
      ],
      [
        "6",
        "4cc"
      ],
      [
        "8CC",
        "#"
      ],
      [
        "4e",
        "("
      ],
      [
        "8d",
        " 8g"
      ],
      [
        "4b",
        "["
      ],
      [
        "4F",
        " 4B-"
      ],
      [
        "b-",
        "L"
      ],
      [
        "8a",
        "]"
      ],
      [
        " 2",
        "C"
      ],
      [
        "8e",
        "[J"
      ],
      [
        "12cc",
        "#J"
      ],
      [
        "16e",
        "K"
      ],
      [
        "8.",
        "BB-"
      ],
      [
        "4A",
        "- 4"
      ],
      [
        " 2",
        "ff"
      ],
      [
        "6",
        "f"
      ],
      [
        "8E",
        " 8A"
      ],
      [
        "2F",
        "F#"
      ],
      [
        "8B",
        "J "
      ],
      [
        "8f",
        "["
      ],
      [
        "4b-",
        "["
      ],
      [
        "2",
        "4G"
      ],
      [
        "8b",
        "L "
      ],
      [
        "8C",
        "J "
      ],
      [
        "2",
        "4c"
      ],
      [
        "o",
        "l"
      ],
      [
        "8G",
        "-J"
      ],
      [
        "8.ee",
        "J"
      ],
      [
        "8f#",
        "(L"
      ],
      [
        "16cc",
        ")JJ"
      ],
      [
        "8cc",
        "["
      ],
      [
        "8a",
        "#L"
      ],
      [
        "8D",
        "#J"
      ],
      [
        "32cc",
        "#"
      ],
      [
        "8cc",
        "-"
      ],
      [
        "8b-",
        "(L"
      ],
      [
        "8GG",
        "#J"
      ],
      [
        "8AA",
        "- "
      ],
      [
        "2.",
        "E-"
      ],
      [
        "8c",
        " 8f"
      ],
      [
        "4.D",
        "D"
      ],
      [
        "8c",
        "-"
      ],
      [
        "4D",
        "]"
      ],
      [
        "2",
        "4A"
      ],
      [
        "8D",
        "- "
      ],
      [
        "8B",
        "n"
      ],
      [
        "12",
        "BB"
      ],
      [
        "16aa-",
        "JJ"
      ],
      [
        "6",
        "g"
      ],
      [
        "-JJ",
        "J"
      ],
      [
        "2G",
        "]"
      ],
      [
        "8aa",
        "(L"
      ],
      [
        "8.e",
        "-L"
      ],
      [
        "2",
        "4aa"
      ],
      [
        "32e",
        "JJJ"
      ],
      [
        "1C",
        "C"
      ],
      [
        "8G",
        " 8c"
      ],
      [
        "16d",
        "-JJ"
      ],
      [
        "4f",
        "("
      ],
      [
        "4cc",
        "("
      ],
      [
        "# 4",
        "f#"
      ],
      [
        "8cc",
        "n"
      ],
      [
        "8e",
        "]"
      ],
      [
        "d",
        "#"
      ],
      [
        "8ff#",
        ")J"
      ],
      [
        "#LL",
        "L"
      ],
      [
        "4c",
        "("
      ],
      [
        "8b-",
        ")J"
      ],
      [
        "8B",
        " 8e"
      ],
      [
        " 1",
        "a"
      ],
      [
        "4b",
        " 4dd"
      ],
      [
        " ",
        "16D"
      ],
      [
        " ",
        "8AA"
      ],
      [
        "8f",
        "[J"
      ],
      [
        "8ee",
        "]L"
      ],
      [
        "16dd",
        "-LL"
      ],
      [
        "16G",
        "-"
      ],
      [
        "8ccc#",
        "L"
      ],
      [
        "16GG",
        "G"
      ],
      [
        "8.B",
        "L"
      ],
      [
        "4A",
        ")"
      ],
      [
        "16e-",
        "Jk"
      ],
      [
        "6",
        "b"
      ],
      [
        "8B-",
        "J "
      ],
      [
        "8e",
        " 8a"
      ],
      [
        "8qq",
        "ff"
      ],
      [
        "12cc",
        "#L"
      ],
      [
        "i",
        "g"
      ],
      [
        "l",
        "ig"
      ],
      [
        "8dd",
        "["
      ],
      [
        " ",
        "8F#"
      ],
      [
        "4b",
        ")"
      ],
      [
        "8e",
        "#"
      ],
      [
        "12f",
        "J"
      ],
      [
        "8.",
        "EE"
      ],
      [
        "8G",
        "-L"
      ],
      [
        "2",
        "4b-"
      ],
      [
        "4d",
        " 4b-"
      ],
      [
        " 8cc",
        " 8ee"
      ],
      [
        "2b",
        "b-"
      ],
      [
        "16aa",
        "K"
      ],
      [
        "4E",
        " 4A"
      ],
      [
        " ",
        "8A-"
      ],
      [
        ")",
        "K"
      ],
      [
        " 2.",
        "g"
      ],
      [
        "8DD",
        "D"
      ],
      [
        "16.",
        "dd"
      ],
      [
        " ",
        "16f#"
      ],
      [
        "16ee",
        ")JJ"
      ],
      [
        "8b",
        " 8dd"
      ],
      [
        " 2.",
        "G"
      ],
      [
        "32e",
        "["
      ],
      [
        "12",
        "e-"
      ],
      [
        "8.e",
        "J"
      ],
      [
        " ",
        "8BB"
      ],
      [
        "8gg",
        ")"
      ],
      [
        "4f",
        " 4a-"
      ],
      [
        "4.",
        "."
      ],
      [
        "16A",
        "#"
      ],
      [
        "6",
        "a"
      ],
      [
        "8e",
        "n"
      ],
      [
        "8b-",
        "]L"
      ],
      [
        "2",
        "4ff#"
      ],
      [
        "16f",
        "J"
      ],
      [
        "8.B-",
        "L"
      ],
      [
        "8eee",
        "L"
      ],
      [
        "32",
        "F#"
      ],
      [
        "8.ee",
        "-L"
      ],
      [
        "4ee",
        "["
      ],
      [
        "8DD",
        "-"
      ],
      [
        "32",
        "a-"
      ],
      [
        "Jk ",
        "6"
      ],
      [
        "*staff",
        "6"
      ],
      [
        "8d",
        "]"
      ],
      [
        "16f#",
        "K"
      ],
      [
        "8dd",
        "("
      ],
      [
        "4FF",
        "F"
      ],
      [
        "8.",
        "e-"
      ],
      [
        "4gg",
        "-"
      ],
      [
        "12f",
        "L"
      ],
      [
        "8ccc#",
        "J"
      ],
      [
        "*M",
        "9"
      ],
      [
        "4ee",
        "e-"
      ],
      [
        "8D",
        "#L"
      ],
      [
        "16B",
        "Jk"
      ],
      [
        " 1",
        "d"
      ],
      [
        "2.",
        "c#"
      ],
      [
        "4e- 4",
        "b-"
      ],
      [
        "J ",
        "8D"
      ],
      [
        "8c",
        "(L"
      ],
      [
        "12aa",
        "J"
      ],
      [
        "-]",
        "LL"
      ],
      [
        "16ee-",
        "Jk"
      ],
      [
        "6",
        "4b"
      ],
      [
        "8c",
        "[J"
      ],
      [
        "-[",
        "JJ"
      ],
      [
        "16gg",
        "#LL"
      ],
      [
        "L ",
        "8C"
      ],
      [
        "6",
        "dd"
      ],
      [
        "16a",
        "aa"
      ],
      [
        "8GG",
        "#L"
      ],
      [
        "8ff",
        "(L"
      ],
      [
        "32b",
        "b-"
      ],
      [
        "16A",
        "L"
      ],
      [
        "4B",
        "]"
      ],
      [
        "4BB-",
        " 4F"
      ],
      [
        "8D",
        " 8A"
      ],
      [
        "4f",
        "n"
      ],
      [
        "8.bb",
        "L"
      ],
      [
        "4.",
        "EE"
      ],
      [
        "4d",
        " 4dd"
      ],
      [
        "8cc#",
        ")J"
      ],
      [
        ")JJ",
        "J"
      ],
      [
        "8.F",
        "L"
      ],
      [
        "12aa",
        "L"
      ],
      [
        "32dd",
        "d"
      ],
      [
        "16G",
        "#LL"
      ],
      [
        "8GG",
        "-"
      ],
      [
        "8d",
        "# "
      ],
      [
        "2e",
        " 2g"
      ],
      [
        "4e",
        "-]"
      ],
      [
        "12",
        "BB-"
      ],
      [
        "16d",
        "#JJ"
      ],
      [
        "12cc",
        "c"
      ],
      [
        "2.",
        "aa"
      ],
      [
        "2D",
        "-"
      ],
      [
        "6",
        "e"
      ],
      [
        "4gg",
        "g"
      ],
      [
        "4EE",
        " 4E"
      ],
      [
        "8.gg",
        "J"
      ],
      [
        "4.g",
        "#"
      ],
      [
        "16cc",
        "(LL"
      ],
      [
        "_",
        " 6"
      ],
      [
        "32",
        "qq"
      ],
      [
        "-LL",
        "L"
      ],
      [
        "32e",
        "LLL"
      ],
      [
        "4f#",
        "]"
      ],
      [
        "6",
        "4dd"
      ],
      [
        "2b-",
        "["
      ],
      [
        " 1",
        "E"
      ],
      [
        "2F",
        "["
      ],
      [
        "8.",
        "FF"
      ],
      [
        " 1",
        "D"
      ],
      [
        "2",
        "4f#"
      ],
      [
        "6",
        "r"
      ],
      [
        "8A",
        "#J"
      ],
      [
        "16d",
        "-LL"
      ],
      [
        "8cc",
        "]"
      ],
      [
        "[",
        "LLL"
      ],
      [
        "8c",
        ")J"
      ],
      [
        "2.",
        "EE"
      ],
      [
        "8b",
        "["
      ],
      [
        "*part",
        "6"
      ],
      [
        " 4.",
        "D"
      ],
      [
        "8c",
        "["
      ],
      [
        "4ff",
        "]"
      ],
      [
        "8b",
        "[J"
      ],
      [
        "L ",
        "8F"
      ],
      [
        "16aa-",
        "LL"
      ],
      [
        "4b",
        "("
      ],
      [
        "# 4",
        "c#"
      ],
      [
        "4.b",
        "b"
      ],
      [
        "*M3",
        "/2"
      ],
      [
        " 2.",
        "a"
      ],
      [
        "16cc#",
        "KL"
      ],
      [
        "8AAA",
        "L"
      ],
      [
        "8aa",
        ")J"
      ],
      [
        "16d",
        "KL"
      ],
      [
        "2.",
        "F#"
      ],
      [
        "2E",
        "E-"
      ],
      [
        " 1",
        "e"
      ],
      [
        "1",
        "a-"
      ],
      [
        " 2",
        "a-"
      ],
      [
        "4g",
        " 4dd"
      ],
      [
        "*",
        "8va"
      ],
      [
        "8eJ",
        " 8g"
      ],
      [
        "4E",
        "n"
      ],
      [
        "8a",
        "("
      ],
      [
        "4G",
        ")"
      ],
      [
        "8G",
        " 8B-"
      ],
      [
        "8A",
        "L "
      ],
      [
        "16ff#",
        "(LL"
      ],
      [
        "16gg",
        "(LL"
      ],
      [
        "16b-",
        "J"
      ],
      [
        "*X",
        "8va"
      ],
      [
        "8qq",
        "ff#"
      ],
      [
        "8EE",
        "- "
      ],
      [
        " ",
        "16F"
      ],
      [
        " 8ee",
        "e"
      ],
      [
        "4f 4a 4cc",
        " 4ee"
      ],
      [
        "4F",
        "["
      ],
      [
        "8ee",
        "- "
      ],
      [
        "16C",
        "#JJ"
      ],
      [
        "8cc#",
        "(L"
      ],
      [
        " 4.",
        "gg"
      ],
      [
        "f",
        "-]"
      ],
      [
        "8.D",
        "L"
      ],
      [
        "16GG",
        "#"
      ],
      [
        "6",
        "4d"
      ],
      [
        "-",
        "f-]"
      ],
      [
        "*k[b-e-a-d-g-c",
        "-f-]"
      ],
      [
        "16B-",
        "Jk"
      ],
      [
        "*M6",
        "/4"
      ],
      [
        "32ee",
        "-"
      ],
      [
        "8.cc",
        "J"
      ],
      [
        " 1",
        "cc"
      ],
      [
        "16FF",
        "LL"
      ],
      [
        "*M9",
        "/8"
      ],
      [
        "4c",
        " 4g"
      ],
      [
        "4B-",
        "["
      ],
      [
        "16dd",
        "#LL"
      ],
      [
        "4G",
        "("
      ],
      [
        "4C",
        "]"
      ],
      [
        "8fL ",
        "8a"
      ],
      [
        "16b",
        "n"
      ],
      [
        "8eee",
        "J"
      ],
      [
        "8f",
        "]"
      ],
      [
        "4CC",
        "#"
      ],
      [
        "6",
        "d"
      ],
      [
        " 1",
        "c"
      ],
      [
        "2",
        "4cc#"
      ],
      [
        "16C",
        "#LL"
      ],
      [
        "i",
        "a"
      ],
      [
        "r",
        "ia"
      ],
      [
        "*st",
        "ria"
      ],
      [
        "8b-",
        "[J"
      ],
      [
        "4A",
        "("
      ],
      [
        "[ ",
        "6"
      ],
      [
        "8C",
        " 8E"
      ],
      [
        "8G",
        "- "
      ],
      [
        "12b-",
        "J"
      ],
      [
        "-[",
        "Jk"
      ],
      [
        "4cc",
        "-"
      ],
      [
        "16.",
        "cc"
      ],
      [
        "4gg",
        "]"
      ],
      [
        "16ddd",
        "-"
      ],
      [
        "4AA",
        " 4E"
      ],
      [
        "8BBB-",
        "L"
      ],
      [
        " 4.",
        "E"
      ],
      [
        "16b",
        ")JJ"
      ],
      [
        "1g",
        "["
      ],
      [
        "#",
        "_"
      ],
      [
        "8dd",
        "]"
      ],
      [
        "8ff#",
        ")"
      ],
      [
        "4f#",
        ")"
      ],
      [
        "16g",
        "(LL"
      ],
      [
        "8ccL ",
        "8gg"
      ],
      [
        "n",
        ")"
      ],
      [
        "16ff#",
        "KL"
      ],
      [
        "*k[f#c#g#d#a#e",
        "#]"
      ],
      [
        "2dd",
        "-"
      ],
      [
        "8aa",
        "#"
      ],
      [
        "8AA",
        "J "
      ],
      [
        "1",
        "aa"
      ],
      [
        "8d",
        ")"
      ],
      [
        "16G",
        "L"
      ],
      [
        "16F",
        "Jk"
      ],
      [
        "2b",
        "["
      ],
      [
        "8C",
        " 8G"
      ],
      [
        "4b-",
        " 4dd"
      ],
      [
        "8a 8cc",
        " 8ee"
      ],
      [
        " 2",
        "c#"
      ],
      [
        "8E",
        "J "
      ],
      [
        "4B",
        " 4e"
      ],
      [
        "4c",
        "-"
      ],
      [
        "16gg",
        "KL"
      ],
      [
        "]JJ",
        "Jk 6"
      ],
      [
        "8f",
        "n"
      ],
      [
        "16gg",
        ")JJ"
      ],
      [
        "16bb",
        "Jk"
      ],
      [
        "4BB",
        "n"
      ],
      [
        "2D",
        "["
      ],
      [
        "b",
        "b-"
      ],
      [
        "2",
        "4F"
      ],
      [
        "8e",
        ")"
      ],
      [
        "(LL",
        "L"
      ],
      [
        "4AAA",
        " 4AA"
      ],
      [
        "16ff",
        "K"
      ],
      [
        "4e- 4",
        "a-"
      ],
      [
        "8ee",
        "[J"
      ],
      [
        "8.cc",
        "c"
      ],
      [
        "2.",
        "a-"
      ],
      [
        " 2",
        "aa"
      ],
      [
        ".",
        "r"
      ],
      [
        "4.AA",
        "-"
      ],
      [
        "8.aa",
        "J"
      ],
      [
        "12ff",
        "J"
      ],
      [
        "- 4",
        "gg"
      ],
      [
        "4e",
        " 4b"
      ],
      [
        "e",
        "m"
      ],
      [
        "16FF",
        "JJ"
      ],
      [
        "r",
        "em"
      ],
      [
        "t",
        "rem"
      ],
      [
        "ol",
        "o"
      ],
      [
        "trem",
        "olo"
      ],
      [
        "2dd",
        "d"
      ],
      [
        "12c",
        "J"
      ],
      [
        " 2",
        "AA"
      ],
      [
        "q",
        "("
      ],
      [
        "[",
        "Jk "
      ],
      [
        "8fJ ",
        "8a"
      ],
      [
        "12",
        "FF"
      ],
      [
        "16D",
        "Jk"
      ],
      [
        " 2.",
        "c"
      ],
      [
        " 4.",
        "F"
      ],
      [
        "8G",
        "]L"
      ],
      [
        " 1",
        "dd"
      ],
      [
        "4f",
        " 4ff"
      ],
      [
        "8aa",
        ")"
      ],
      [
        "8A",
        "]L"
      ],
      [
        "16f#",
        "KL"
      ],
      [
        "LL",
        "LL"
      ],
      [
        "8.f",
        "L "
      ],
      [
        "8c",
        "]"
      ],
      [
        " 2.",
        "cc"
      ],
      [
        "1d",
        "["
      ],
      [
        "8b",
        "]"
      ],
      [
        "16ff",
        "J"
      ],
      [
        "2B-",
        "["
      ],
      [
        "8A",
        ")J"
      ],
      [
        "8ff",
        ")J"
      ],
      [
        "4G 4B",
        " 4d"
      ],
      [
        "16g",
        ")JJ"
      ],
      [
        " ",
        "16."
      ],
      [
        "4f#",
        " 4dd"
      ],
      [
        "8b-",
        "["
      ],
      [
        "6",
        "4c"
      ],
      [
        "8b",
        "nJ"
      ],
      [
        "L ",
        "8E"
      ],
      [
        "4GG",
        "-"
      ],
      [
        "4DD",
        "-"
      ],
      [
        "8F",
        " 8B-"
      ],
      [
        " 2.",
        "d"
      ],
      [
        "12dd",
        "d"
      ],
      [
        "2F",
        "]"
      ],
      [
        "16f#",
        "J"
      ],
      [
        "2b-",
        "]"
      ],
      [
        "16g#",
        "Jk"
      ],
      [
        "4ee",
        ")"
      ],
      [
        "4BBB-",
        " 4BB-"
      ],
      [
        "16aa",
        "#"
      ],
      [
        " ",
        "8GG"
      ],
      [
        "6",
        "c"
      ],
      [
        " 4.",
        "e-"
      ],
      [
        "4BB",
        " 4B"
      ],
      [
        " 4cc",
        "#"
      ],
      [
        "6",
        "4a"
      ],
      [
        "12b",
        "b-"
      ],
      [
        "2D",
        "]"
      ],
      [
        "(",
        "Jk"
      ],
      [
        "L ",
        "8B-"
      ],
      [
        "8gg",
        "]L"
      ],
      [
        "8dL ",
        "8f"
      ],
      [
        "12ff",
        "L"
      ],
      [
        "4EE-",
        " 4E-"
      ],
      [
        "2B-",
        "]"
      ],
      [
        "4e",
        "#"
      ],
      [
        "16d",
        "K"
      ],
      [
        "16f",
        "KL"
      ],
      [
        "4EE",
        "E"
      ],
      [
        "16ee",
        "#"
      ],
      [
        "1",
        "A-"
      ],
      [
        "16g",
        "-JJ"
      ],
      [
        "8.d",
        "J"
      ],
      [
        "8A",
        "(L"
      ],
      [
        "8ee",
        "n"
      ],
      [
        "16cc",
        "-"
      ],
      [
        "12b-",
        "L"
      ],
      [
        "8g",
        " 8b-"
      ],
      [
        "8ee",
        "["
      ],
      [
        "JJ",
        "JJ"
      ],
      [
        "8ff",
        "L "
      ],
      [
        "T",
        "L"
      ],
      [
        "8b-",
        "]"
      ],
      [
        "4cc",
        "n"
      ],
      [
        "2.D",
        "D"
      ],
      [
        "8b",
        "nL"
      ],
      [
        "8BBB",
        "L"
      ],
      [
        "8ee",
        "#"
      ],
      [
        "8ddd",
        "-"
      ],
      [
        "4gg",
        "["
      ],
      [
        "8A",
        "["
      ],
      [
        " 4ee",
        "e"
      ],
      [
        "12ee",
        "-"
      ],
      [
        "16a",
        "#JJ"
      ],
      [
        "4G",
        "# 4B"
      ],
      [
        "4.d",
        "-"
      ],
      [
        " 16cc",
        " 16ee"
      ],
      [
        "8dJ",
        " 8f"
      ],
      [
        "16EE",
        "LL"
      ],
      [
        "8.C",
        "L"
      ],
      [
        " ",
        "16ddd"
      ],
      [
        "4.C",
        "C"
      ],
      [
        "8ff",
        "]L"
      ],
      [
        "8G",
        "(L"
      ],
      [
        "8cc",
        "nL"
      ],
      [
        "8AA",
        "#"
      ],
      [
        "12",
        "EE"
      ],
      [
        "2",
        "4E"
      ],
      [
        "4BB",
        " 4G"
      ],
      [
        "4ff",
        "["
      ],
      [
        "2.",
        "ff#"
      ],
      [
        "8cc",
        " 8ff"
      ],
      [
        "- 4",
        "B-"
      ],
      [
        "4E",
        "]"
      ],
      [
        "8.E",
        "L"
      ],
      [
        "4c",
        " 4a"
      ],
      [
        "16ee",
        "-L"
      ],
      [
        "*M",
        "12"
      ],
      [
        " 1",
        "B"
      ],
      [
        "4B-",
        " 4e-"
      ],
      [
        "32",
        "BB-"
      ],
      [
        "2F",
        " 2A"
      ],
      [
        "2AA",
        "A"
      ],
      [
        "2b",
        "]"
      ],
      [
        "4.b",
        "b-"
      ],
      [
        "8gg",
        "-J"
      ],
      [
        "4D",
        "["
      ],
      [
        " 1",
        "F"
      ],
      [
        "4B",
        ")"
      ],
      [
        "8gg",
        "-L"
      ],
      [
        "8eee",
        "-L"
      ],
      [
        "[",
        "LL "
      ],
      [
        "8C",
        " 8c"
      ],
      [
        "16B",
        "L"
      ],
      [
        ")",
        "LL"
      ],
      [
        "2",
        "4B"
      ],
      [
        "4GG",
        " 4D"
      ],
      [
        "16d",
        "#LL"
      ],
      [
        " ",
        "8BB-"
      ],
      [
        "8qqg",
        "L"
      ],
      [
        " 2.",
        "dd"
      ],
      [
        "4.cc",
        "c"
      ],
      [
        "8g",
        "("
      ],
      [
        "8.f",
        "J"
      ],
      [
        "8.",
        "."
      ],
      [
        "8.dd",
        "d"
      ],
      [
        "2b",
        "n"
      ],
      [
        "16a-",
        "Jk"
      ],
      [
        "4a",
        "n"
      ],
      [
        "8b- ",
        "8dd"
      ],
      [
        "12",
        "a-"
      ],
      [
        "8cc",
        "("
      ],
      [
        "4BB",
        " 4D"
      ],
      [
        "12G",
        "J"
      ],
      [
        "4a",
        " 4dd"
      ],
      [
        " 1",
        "C"
      ],
      [
        "2ee",
        "["
      ],
      [
        " ",
        "16B-"
      ],
      [
        "4ee",
        "("
      ],
      [
        "8g",
        "n"
      ],
      [
        "2B",
        "n"
      ],
      [
        "*staff",
        "7"
      ],
      [
        "4a- 4",
        "cc"
      ],
      [
        "16.",
        "ee"
      ],
      [
        "8CC",
        " 8C"
      ],
      [
        "16EE",
        "JJ"
      ],
      [
        "8ee",
        " 8gg"
      ],
      [
        "8a",
        "n"
      ],
      [
        "*clefC",
        "3"
      ],
      [
        " ",
        "16ccc"
      ],
      [
        " 8G",
        " 8B"
      ],
      [
        "16e",
        "-L"
      ],
      [
        "2f",
        " 2a"
      ],
      [
        "8A- ",
        "8c"
      ],
      [
        "12A",
        "L"
      ],
      [
        "8G",
        "["
      ],
      [
        "4f#",
        "["
      ],
      [
        "6",
        "4f"
      ],
      [
        "*stria",
        "1"
      ],
      [
        "16g",
        "-LL"
      ],
      [
        "*M12",
        "/8"
      ],
      [
        "16ccc#",
        "JJ"
      ],
      [
        "16B-",
        "L"
      ],
      [
        "4d- 4",
        "f"
      ],
      [
        " 1",
        "f"
      ],
      [
        " 4.",
        "ff"
      ],
      [
        " ",
        "16bb"
      ],
      [
        "32D",
        "D"
      ],
      [
        "8.c#",
        "L"
      ],
      [
        "8BB-",
        "J "
      ],
      [
        "4F 4A",
        " 4c"
      ],
      [
        "8BB-",
        " 8B-"
      ],
      [
        " 2",
        "ee-"
      ],
      [
        "8G",
        ")J"
      ],
      [
        "8A",
        "]"
      ],
      [
        "4e-",
        "["
      ],
      [
        "4A",
        "n"
      ],
      [
        "2g",
        "-"
      ],
      [
        "32a",
        "a-"
      ],
      [
        "8g",
        "- "
      ],
      [
        " 2.",
        "E"
      ],
      [
        "8DD",
        " 8D"
      ],
      [
        "8.D",
        "D"
      ],
      [
        "8c#",
        "L "
      ],
      [
        "16f",
        "K"
      ],
      [
        "4cc",
        " 4gg"
      ],
      [
        "# ",
        "8e"
      ],
      [
        "16aa",
        "(LL"
      ],
      [
        "2.",
        "A-"
      ],
      [
        "4B",
        "["
      ],
      [
        "16E",
        "Jk"
      ],
      [
        "16D",
        "L"
      ],
      [
        "8g",
        " 8cc"
      ],
      [
        "12A",
        "J"
      ],
      [
        "8A",
        "[J"
      ],
      [
        "4b-",
        ")"
      ],
      [
        "8GG",
        " 8G"
      ],
      [
        "2d",
        " 2f"
      ],
      [
        "1a",
        "["
      ],
      [
        "16aa",
        "J"
      ],
      [
        "8E",
        "n"
      ],
      [
        "8gg",
        "["
      ],
      [
        "8ff",
        "["
      ],
      [
        "8gJ",
        " 8b"
      ],
      [
        "8G",
        "[J"
      ],
      [
        " 2",
        "E-"
      ],
      [
        "8f#",
        "]L"
      ],
      [
        " 2",
        "BB"
      ],
      [
        "8fff",
        "L"
      ],
      [
        "8f",
        " 8cc"
      ],
      [
        "2d",
        " 2g"
      ],
      [
        "*part",
        "7"
      ],
      [
        "#",
        "L "
      ],
      [
        "4g",
        " 4gg"
      ],
      [
        "8ee",
        "("
      ],
      [
        "1c",
        "["
      ],
      [
        "4C",
        " 4F"
      ],
      [
        "4b-",
        "("
      ],
      [
        "4AA",
        " 4C"
      ],
      [
        "8b",
        "("
      ],
      [
        "8ee",
        "L "
      ],
      [
        "8B-",
        "]L"
      ],
      [
        "8D",
        " "
      ],
      [
        "16DD",
        "LL"
      ],
      [
        "16.",
        "a"
      ],
      [
        "4B-",
        ")"
      ],
      [
        "]",
        "K"
      ],
      [
        "8f",
        ")"
      ],
      [
        "2G",
        " 2B"
      ],
      [
        "32",
        "E-"
      ],
      [
        "4B",
        " 4g"
      ],
      [
        "8A",
        "#L"
      ],
      [
        "12c",
        "L"
      ],
      [
        "16e",
        "- "
      ],
      [
        " ",
        "16C"
      ],
      [
        "dd",
        "-"
      ],
      [
        "16ff#",
        ")JJ"
      ],
      [
        "16AA",
        "-LL"
      ],
      [
        " 2cc",
        "#"
      ],
      [
        "4.C",
        "#"
      ],
      [
        "4a",
        " 4aa"
      ],
      [
        "32ee",
        "e"
      ],
      [
        "4e 4g",
        "#"
      ],
      [
        "4.g",
        "["
      ],
      [
        " ",
        "16ee-"
      ],
      [
        "8GGG",
        "L"
      ],
      [
        "8f#",
        ")"
      ],
      [
        "8AAA",
        "J"
      ],
      [
        "4f#",
        "("
      ],
      [
        "8E",
        "J 8G"
      ],
      [
        "4c 4e",
        " 4g"
      ],
      [
        " ",
        "16ff#"
      ],
      [
        "8b",
        "a"
      ],
      [
        "8eee",
        "-J"
      ],
      [
        " 4d",
        "-"
      ],
      [
        "4D",
        " 4B-"
      ],
      [
        "4AA",
        "#"
      ],
      [
        "16.",
        "gg"
      ],
      [
        "8F",
        " 8c"
      ],
      [
        "6",
        "4ee"
      ],
      [
        "32cc",
        "JJJ"
      ],
      [
        "1G",
        "["
      ],
      [
        "n",
        "Jk"
      ],
      [
        "8.b",
        "b-L"
      ],
      [
        "2E",
        " 2G"
      ],
      [
        "1g",
        "]"
      ],
      [
        "8AA",
        " 8A"
      ],
      [
        "16c#",
        "Jk"
      ],
      [
        "4G 4c",
        " 4e"
      ],
      [
        " ",
        "8E-"
      ],
      [
        "1e",
        "["
      ],
      [
        "16c",
        "-"
      ],
      [
        "16f",
        "Jk "
      ],
      [
        "16C",
        "Jk"
      ],
      [
        "8.a",
        "-L"
      ],
      [
        "1d",
        "]"
      ],
      [
        "4c",
        " 4cc"
      ],
      [
        "16e",
        "#"
      ],
      [
        " 2.",
        "F"
      ],
      [
        "8GG",
        " 8D"
      ],
      [
        "8.d",
        "L "
      ],
      [
        "8.g",
        "#L"
      ],
      [
        "32g",
        "#"
      ],
      [
        "8b-",
        ")"
      ],
      [
        ";",
        "]"
      ],
      [
        "32C",
        "C"
      ],
      [
        "6",
        "4gg"
      ],
      [
        "2C",
        "["
      ],
      [
        "2e",
        "n"
      ],
      [
        "8.f#",
        "J"
      ],
      [
        "# 4",
        "F#"
      ],
      [
        "1f",
        "["
      ],
      [
        "8C",
        "-"
      ],
      [
        " 2.",
        "e"
      ],
      [
        "2B",
        "["
      ],
      [
        "8G",
        " 8d"
      ],
      [
        "4e",
        " 4ee"
      ],
      [
        "16D",
        "-LL"
      ],
      [
        " 4.",
        "A-"
      ],
      [
        "1cc",
        "#"
      ],
      [
        "4B-",
        "("
      ],
      [
        "4",
        "0"
      ],
      [
        "8.ee",
        "-"
      ],
      [
        "2",
        "4bb"
      ],
      [
        " 4.",
        "f#"
      ],
      [
        "4C",
        "["
      ],
      [
        "8e-",
        "[J"
      ],
      [
        "8cc",
        "nJ"
      ],
      [
        "16ff",
        "KL"
      ],
      [
        "8e",
        "-]"
      ],
      [
        "8B",
        "L "
      ],
      [
        "8ff",
        "n"
      ],
      [
        "8f#",
        "["
      ],
      [
        " 8cc",
        "c#"
      ],
      [
        "8E",
        "#"
      ],
      [
        "8DD",
        "-L"
      ],
      [
        " 8e",
        "- "
      ],
      [
        "32",
        "FF"
      ],
      [
        "u",
        "L"
      ],
      [
        "12G",
        "L"
      ],
      [
        "8a",
        " 8dd"
      ],
      [
        "8f#",
        "[J"
      ],
      [
        "32ee",
        "JJJ"
      ],
      [
        "8a",
        " 8cc#"
      ],
      [
        "1",
        "ee-"
      ],
      [
        "4d",
        "n"
      ],
      [
        "16D",
        "-JJ"
      ],
      [
        "6",
        "D"
      ],
      [
        "8GG",
        "# "
      ],
      [
        "8f",
        " 8ff"
      ],
      [
        "16c",
        "J"
      ],
      [
        " ",
        "16bb-"
      ],
      [
        "2",
        "4D"
      ],
      [
        "2B",
        "]"
      ],
      [
        "2",
        "4C"
      ],
      [
        " 4",
        "FF"
      ],
      [
        "32b",
        "JJJ"
      ],
      [
        "a",
        "a-"
      ],
      [
        "8cc",
        "-J"
      ],
      [
        "8.",
        "a-"
      ],
      [
        "8A",
        "n"
      ],
      [
        "4D",
        ")"
      ],
      [
        "4E 4G",
        "#"
      ],
      [
        "4g",
        " 4ee"
      ],
      [
        "8cc#",
        ")"
      ],
      [
        "8FF",
        "F#"
      ],
      [
        "gg",
        "#"
      ],
      [
        "cc",
        "c"
      ],
      [
        "4c",
        "n"
      ],
      [
        " 2.",
        "B"
      ],
      [
        "16AA",
        "-JJ"
      ],
      [
        "12D",
        "D"
      ],
      [
        "8ee",
        "]"
      ],
      [
        "4F",
        "n"
      ],
      [
        "16a",
        "#LL"
      ],
      [
        "4ee",
        " 4gg"
      ],
      [
        "16b-",
        "KL"
      ],
      [
        "]",
        "Jk"
      ],
      [
        "8BBB",
        "J"
      ],
      [
        "4B",
        "("
      ],
      [
        "4e 4cc",
        "#"
      ],
      [
        "8B-",
        "["
      ],
      [
        "4g",
        "# 4b"
      ],
      [
        " 2.",
        "f"
      ],
      [
        "6",
        "G"
      ],
      [
        ")",
        "["
      ],
      [
        "8B-",
        " 8e-"
      ],
      [
        "8fff",
        "J"
      ],
      [
        "8G",
        "]"
      ],
      [
        "2.cc",
        "#"
      ],
      [
        "2",
        "4e-"
      ],
      [
        "8GG",
        "-L"
      ],
      [
        "2BB-",
        " 2B-"
      ],
      [
        "24e",
        "JJ"
      ],
      [
        "8B",
        "]"
      ],
      [
        "8e-",
        "]L"
      ],
      [
        "8BBB-",
        "J"
      ],
      [
        "4A",
        " 4e"
      ],
      [
        "4f#",
        " 4b"
      ],
      [
        " 4.",
        "a-"
      ],
      [
        "8CC",
        "#J"
      ],
      [
        "4GG",
        "# 4"
      ],
      [
        "2",
        "4B-"
      ],
      [
        "8gL ",
        "8b"
      ],
      [
        " 1",
        "b"
      ],
      [
        "8CC",
        "#L"
      ],
      [
        "32cc",
        "c#"
      ],
      [
        "4GGG",
        " 4GG"
      ],
      [
        "8e-",
        "["
      ],
      [
        "_",
        "LL"
      ],
      [
        " 2.",
        "D"
      ],
      [
        "1A",
        "["
      ],
      [
        "16aa",
        ")JJ"
      ],
      [
        "6",
        "4g"
      ],
      [
        "*staff",
        "8"
      ],
      [
        "2.",
        "ee-"
      ],
      [
        "2GG",
        " 2G"
      ],
      [
        "8B-",
        "(L"
      ],
      [
        "4.E",
        "E-"
      ],
      [
        "AA",
        "-"
      ],
      [
        "32cc",
        "LLL"
      ],
      [
        "16ccc#",
        "LL"
      ],
      [
        "8AA",
        " 8E"
      ],
      [
        "2d",
        ")"
      ],
      [
        "8gg",
        "[J"
      ],
      [
        "8c",
        " 8e-"
      ],
      [
        "(",
        "("
      ],
      [
        "8GG",
        "L 8G"
      ],
      [
        "16b-",
        "K"
      ],
      [
        "2E",
        "]"
      ],
      [
        "2.g",
        "["
      ],
      [
        "2c",
        " 2e"
      ],
      [
        "12g",
        "#"
      ],
      [
        "8e-",
        ")J"
      ],
      [
        "8cc",
        "-L"
      ],
      [
        "8.",
        "F#"
      ],
      [
        "2C",
        "]"
      ],
      [
        "12",
        "F#"
      ],
      [
        "4g",
        "n"
      ],
      [
        "4e-",
        ")"
      ],
      [
        "8BB",
        " 8D"
      ],
      [
        "6",
        "A"
      ],
      [
        "6",
        "ee"
      ],
      [
        "8BB",
        "n"
      ],
      [
        "2D",
        " 2A"
      ],
      [
        "16a",
        "-L"
      ],
      [
        "2ee",
        "]"
      ],
      [
        "2e-",
        " 2g"
      ],
      [
        "4d",
        "# 4f#"
      ],
      [
        "2E",
        "["
      ],
      [
        "2e-",
        "["
      ],
      [
        "32",
        "EE"
      ],
      [
        "8c 8e",
        "- "
      ],
      [
        "16eee",
        "JJ"
      ],
      [
        "L ",
        "8B"
      ],
      [
        "8ff",
        "[J"
      ],
      [
        " 8b",
        "- "
      ],
      [
        "8eL ",
        "8g"
      ],
      [
        "2e-",
        "]"
      ],
      [
        "16gg#",
        "Jk"
      ],
      [
        "2..",
        "r"
      ],
      [
        "8c",
        "-J"
      ],
      [
        "8c",
        "n"
      ],
      [
        "8.AA",
        "L"
      ],
      [
        "8B-",
        "L "
      ],
      [
        "4BBB",
        " 4BB"
      ],
      [
        "0",
        ".r"
      ],
      [
        "8aL",
        " 8cc"
      ],
      [
        "8b",
        "#"
      ],
      [
        "4.a",
        "["
      ],
      [
        "16ff",
        "(LL"
      ],
      [
        "1g",
        "#"
      ],
      [
        "- 4",
        "f"
      ],
      [
        "g",
        "-"
      ],
      [
        " 2",
        "ff#"
      ],
      [
        "8qqff",
        "J"
      ],
      [
        "4FF#",
        " 4F#"
      ],
      [
        "32dd",
        "JJJ"
      ],
      [
        "8dd",
        " 8ff"
      ],
      [
        " 8d",
        "-"
      ],
      [
        "16eee",
        "LL"
      ],
      [
        "8cc",
        "cc"
      ],
      [
        "2.C",
        "C"
      ],
      [
        "8F# ",
        "8B"
      ],
      [
        "J ",
        "8C"
      ],
      [
        "4BB-",
        " 4D"
      ],
      [
        "12B",
        "J"
      ],
      [
        "8qq",
        "cc#"
      ],
      [
        "8B",
        "(L"
      ],
      [
        "6",
        "ff"
      ],
      [
        "16d",
        "Jk "
      ],
      [
        "4F 4A",
        "-"
      ],
      [
        "8CC",
        "L 8C"
      ],
      [
        "8d",
        "n"
      ],
      [
        "8c",
        ")"
      ],
      [
        "*part",
        "8"
      ],
      [
        "4F",
        ")"
      ],
      [
        "8c",
        "-L"
      ],
      [
        "4.dd",
        "["
      ],
      [
        "16F",
        "L"
      ],
      [
        "8f",
        " 8a-"
      ],
      [
        "12B",
        "L"
      ],
      [
        "L ",
        "8AA"
      ],
      [
        "2a",
        "a-"
      ],
      [
        "8fJ ",
        "8gg"
      ],
      [
        "8D",
        "# "
      ],
      [
        " ",
        "16c#"
      ],
      [
        "8ff",
        ")"
      ],
      [
        "6",
        "gg"
      ],
      [
        "4cc",
        "# 4ee"
      ],
      [
        "8F",
        "]L"
      ],
      [
        "8.g",
        "L "
      ],
      [
        "4F# 4",
        "B"
      ],
      [
        "2f#",
        " 2a"
      ],
      [
        "2ff",
        "["
      ],
      [
        "4A 4c",
        " 4e"
      ],
      [
        "4.G",
        "#"
      ],
      [
        "16cc#",
        "(LL"
      ],
      [
        "2C",
        " 2G"
      ],
      [
        "4CC",
        "# 4"
      ],
      [
        "1cc",
        "["
      ],
      [
        "8B",
        "["
      ],
      [
        "16FF#",
        "LL"
      ],
      [
        "4a",
        "-]"
      ],
      [
        "8f#",
        " 8b"
      ],
      [
        "16d",
        "(LL"
      ],
      [
        "8f#",
        "]"
      ],
      [
        "K",
        " 6"
      ],
      [
        "8B-",
        "[J"
      ],
      [
        "6",
        "4G"
      ],
      [
        "2D",
        " 2F#"
      ],
      [
        "6",
        "b-"
      ],
      [
        "16.",
        "g"
      ],
      [
        "*",
        "lig"
      ],
      [
        "4C",
        " 4A"
      ],
      [
        "8dd",
        "- "
      ],
      [
        "# 4",
        "ff#"
      ],
      [
        "4e-",
        "("
      ],
      [
        "12E",
        "L"
      ],
      [
        "12",
        "A-"
      ],
      [
        "8e-L",
        " 8g"
      ],
      [
        "8f",
        " 8dd"
      ],
      [
        "8.dd",
        "(L"
      ],
      [
        "4.F",
        "F#"
      ],
      [
        "1a",
        "]"
      ],
      [
        " 4.",
        "C"
      ],
      [
        "4E",
        " 4c"
      ],
      [
        "4aa",
        "]"
      ],
      [
        "4E",
        "["
      ],
      [
        "4C",
        "-"
      ],
      [
        "16D",
        "#JJ"
      ],
      [
        " ",
        "16BB"
      ],
      [
        "8D",
        "]L"
      ],
      [
        "4ee",
        "-]"
      ],
      [
        "24cc",
        "JJ"
      ],
      [
        "2dd",
        "#"
      ],
      [
        " 4g",
        "#"
      ],
      [
        "6",
        "4DD"
      ],
      [
        "4F",
        "("
      ],
      [
        "8dJ",
        " 8g"
      ],
      [
        "*X",
        "lig"
      ],
      [
        "1",
        "ff#"
      ],
      [
        "4D",
        " 4B"
      ],
      [
        "16DD",
        "JJ"
      ],
      [
        "8B-",
        ")J"
      ],
      [
        " 8g",
        "gg"
      ],
      [
        "16E",
        "L"
      ],
      [
        "4.dd",
        "-"
      ],
      [
        "32b",
        "LLL"
      ],
      [
        " 8c",
        " 8e"
      ],
      [
        " 1",
        "ee"
      ],
      [
        "16.",
        "ff"
      ],
      [
        "4c# 4",
        "a"
      ],
      [
        "4dd",
        " 4ff"
      ],
      [
        "8f 8a",
        " 8cc 8ee"
      ],
      [
        "16f",
        " 16a"
      ],
      [
        "12ee",
        "e"
      ],
      [
        "2G",
        "-"
      ],
      [
        "2BB",
        "B-"
      ],
      [
        "4C# 4",
        "E"
      ],
      [
        " ",
        "8.e"
      ],
      [
        "4e- 4",
        "ee-"
      ],
      [
        "8e",
        "#J"
      ],
      [
        "2C",
        " 2c"
      ],
      [
        "8FF",
        " 8F"
      ],
      [
        "8gg",
        "("
      ],
      [
        " 8ff",
        "f"
      ],
      [
        "32a",
        "JJJ"
      ],
      [
        "t",
        "L"
      ],
      [
        "16dd",
        ")"
      ],
      [
        "8aJ",
        " 8cc"
      ],
      [
        "1c",
        "]"
      ],
      [
        "8a- ",
        "8cc"
      ],
      [
        "4C 4E",
        " 4G"
      ],
      [
        "8B-",
        "]"
      ],
      [
        " ",
        "16F#"
      ],
      [
        "16CC",
        "LL"
      ],
      [
        "8f#J ",
        "8a"
      ],
      [
        "4cc",
        " 4ccc"
      ],
      [
        "8DD",
        "L 8D"
      ],
      [
        "8.C",
        "C"
      ],
      [
        "8aa",
        "]L"
      ],
      [
        "8BB",
        "J "
      ],
      [
        "16FF#",
        "JJ"
      ],
      [
        "# 4",
        "dd"
      ],
      [
        " 2.",
        "b-"
      ],
      [
        "12dd",
        ")J"
      ],
      [
        " 4.",
        "aa"
      ],
      [
        "# 4",
        "cc"
      ],
      [
        "2E-",
        " 2G"
      ],
      [
        "8qqdd",
        "J"
      ],
      [
        "8.e",
        "L "
      ],
      [
        "1e",
        "]"
      ],
      [
        "4E- 4",
        "A"
      ],
      [
        ")",
        ")"
      ],
      [
        "8ccJ",
        " 8gg"
      ],
      [
        "4ee",
        "n"
      ],
      [
        " ",
        "16cc#"
      ],
      [
        "L ",
        "8.A"
      ],
      [
        "8ee-",
        "(L"
      ],
      [
        "1G",
        "]"
      ],
      [
        "8d",
        " 8dd"
      ],
      [
        "1F",
        "F#"
      ],
      [
        "16qq",
        "dd"
      ],
      [
        "8BB",
        " 8E"
      ],
      [
        "12gg",
        "#"
      ],
      [
        " 2E",
        " 2G"
      ],
      [
        "8B",
        "]L"
      ],
      [
        "L ",
        "8.d"
      ],
      [
        "6",
        "4A"
      ],
      [
        "2f#",
        "["
      ],
      [
        "8ddd",
        "#"
      ],
      [
        "16G",
        "-JJ"
      ],
      [
        "8g",
        " 8gg"
      ],
      [
        "2a",
        "#"
      ],
      [
        "32e",
        "_"
      ],
      [
        "8EE",
        " 8E"
      ],
      [
        "4AA",
        "]"
      ],
      [
        "8D",
        " 8F"
      ],
      [
        "4ff",
        "f#"
      ],
      [
        "4BB",
        " 4F#"
      ],
      [
        "8.ff#",
        "J"
      ],
      [
        "8D",
        "L 8A"
      ],
      [
        "8e-",
        "(L"
      ],
      [
        "4g",
        "- 4"
      ],
      [
        "2d",
        " 2f#"
      ],
      [
        "4gg",
        "("
      ],
      [
        "(",
        "JJ"
      ],
      [
        "8qqgg",
        "J"
      ],
      [
        "16ff",
        ")JJ"
      ],
      [
        " 2.",
        "B-"
      ],
      [
        "2GG",
        "G"
      ],
      [
        "8GG",
        "-J"
      ],
      [
        "# ",
        "8f#"
      ],
      [
        "16cc#",
        ")JJ"
      ],
      [
        "64e",
        "_"
      ],
      [
        "2",
        "4ccc"
      ],
      [
        "2g",
        ")"
      ],
      [
        "24b",
        "JJ"
      ],
      [
        "12B-",
        "J"
      ],
      [
        " 4.",
        "F#"
      ],
      [
        "- 4",
        "e-"
      ],
      [
        "8D",
        "]"
      ],
      [
        "4cc",
        " 4ff"
      ],
      [
        "8.b",
        "b-"
      ],
      [
        "4E- 4",
        "e-"
      ],
      [
        " 4ff",
        "f"
      ],
      [
        "16bb",
        "L"
      ],
      [
        "32e",
        "]"
      ],
      [
        "16g",
        "[JJ"
      ],
      [
        " ",
        "8.cc"
      ],
      [
        "4GG",
        "]"
      ],
      [
        "16.",
        "b"
      ],
      [
        "1f",
        "]"
      ],
      [
        "16EE-",
        "LL"
      ],
      [
        "16g",
        "]LL"
      ],
      [
        "8.ff",
        "J"
      ],
      [
        "8A",
        " 8c#"
      ],
      [
        "4C# 4",
        "A"
      ],
      [
        "1D",
        "["
      ],
      [
        "8dJ",
        " 8f#"
      ],
      [
        "4.dd",
        "d"
      ],
      [
        "16aa",
        "KL"
      ],
      [
        "8F#J",
        " 8A"
      ],
      [
        "8B",
        "[J"
      ],
      [
        "8a-",
        "["
      ],
      [
        "b",
        "#]"
      ],
      [
        "16ee",
        "n"
      ],
      [
        ":",
        "["
      ],
      [
        "8B",
        "#"
      ],
      [
        "8g# ",
        "8b"
      ],
      [
        "2g",
        " 2b"
      ],
      [
        "8BB-",
        "L 8B-"
      ],
      [
        "8.E",
        "-L"
      ],
      [
        "6",
        "F"
      ],
      [
        "16qq",
        "cc"
      ],
      [
        "32ee",
        "LLL"
      ],
      [
        "8f#L ",
        "8a"
      ],
      [
        "8B",
        ")J"
      ],
      [
        "Jk ",
        "16A"
      ],
      [
        "#]",
        "LL"
      ],
      [
        "8.cc",
        "#J"
      ],
      [
        " 8aa",
        "-"
      ],
      [
        "8c",
        "- "
      ],
      [
        "8F",
        "["
      ],
      [
        "#",
        "b#]"
      ],
      [
        "*k[f#c#g#d#a#e",
        "#b#]"
      ],
      [
        "8D",
        "["
      ],
      [
        "8D",
        " 8G"
      ],
      [
        "1AA",
        "A"
      ],
      [
        "4d 4f#",
        " 4a"
      ],
      [
        " ",
        "8.d"
      ],
      [
        "Jk",
        "k"
      ],
      [
        "8B",
        "nL"
      ],
      [
        "4E",
        "-]"
      ],
      [
        "4gg",
        ")"
      ],
      [
        "16F",
        "FF"
      ],
      [
        "8.a",
        "(L"
      ],
      [
        "12ee",
        "(L"
      ],
      [
        "2f#",
        "]"
      ],
      [
        "4a 4cc",
        "#"
      ],
      [
        "[LL",
        "L "
      ],
      [
        "12e",
        "-J"
      ],
      [
        "4E",
        ")"
      ],
      [
        "16a",
        "- "
      ],
      [
        "8cc#",
        " 8ee"
      ],
      [
        "8gg",
        "]"
      ],
      [
        "32gg",
        "LLL"
      ],
      [
        "12e",
        "-L"
      ],
      [
        "8e-J",
        " 8g"
      ],
      [
        "# 4",
        "e"
      ],
      [
        " ",
        "16e-"
      ],
      [
        "2g",
        "("
      ],
      [
        "8GGG",
        "J"
      ],
      [
        "_",
        "J "
      ],
      [
        "4FF",
        "F#"
      ],
      [
        "2GG",
        "#"
      ],
      [
        "4D- 4",
        "A-"
      ],
      [
        "12F",
        "J"
      ],
      [
        "8.BB-",
        "L"
      ],
      [
        "4.g",
        "("
      ],
      [
        "2D",
        "#"
      ],
      [
        "12a",
        ")J"
      ],
      [
        "8a",
        " 8aa"
      ],
      [
        "8qqcc",
        "J"
      ],
      [
        "[K",
        "KLL"
      ],
      [
        " 2",
        "GG"
      ],
      [
        "4ff",
        "n"
      ],
      [
        "*met(",
        "C"
      ],
      [
        "16E-",
        "Jk"
      ],
      [
        "24cc",
        "LL"
      ],
      [
        "12C",
        "C"
      ],
      [
        "8D",
        " 8d"
      ],
      [
        "1dd",
        "["
      ],
      [
        "8D",
        "L "
      ],
      [
        "16d",
        ")JJ"
      ],
      [
        "8f",
        "-"
      ],
      [
        "8e",
        "("
      ],
      [
        "12",
        "8g"
      ],
      [
        "4f 4a 4cc 4ee",
        " 4gg"
      ],
      [
        "4G",
        "n"
      ],
      [
        "4.D",
        "-"
      ],
      [
        "8E-J",
        " 8G"
      ],
      [
        "16cc",
        "# "
      ],
      [
        "4dd",
        " 4ff#"
      ],
      [
        "8AAA",
        "-"
      ],
      [
        "8B",
        "nJ"
      ],
      [
        "8d",
        " 8a"
      ],
      [
        "2.a",
        "["
      ],
      [
        "24a",
        "JJ"
      ],
      [
        "12a",
        "(L"
      ],
      [
        "16dd",
        "]LL"
      ],
      [
        "8D",
        "[J"
      ],
      [
        "D",
        "#"
      ],
      [
        "8aa",
        "[J"
      ],
      [
        "*staff",
        "9"
      ],
      [
        "8AA",
        "#J"
      ],
      [
        "# 4",
        "d"
      ],
      [
        "1A",
        "]"
      ],
      [
        "4AAA",
        "-"
      ],
      [
        "4C",
        " 4E-"
      ],
      [
        "16gg",
        "-JJ"
      ],
      [
        "8DD",
        "#"
      ],
      [
        "2e",
        ")"
      ],
      [
        "8ccL ",
        "8ee"
      ],
      [
        "16eee-",
        "JJ"
      ],
      [
        "8ccJ",
        " 8ee"
      ],
      [
        "4A 4c",
        " 4f"
      ],
      [
        "6",
        "B"
      ],
      [
        "16c",
        "KL"
      ],
      [
        "2gg",
        "["
      ],
      [
        "8F 8A",
        "- "
      ],
      [
        "16b",
        "#"
      ],
      [
        "16AA",
        "#"
      ],
      [
        "24a",
        "LL"
      ],
      [
        "8F",
        "L "
      ],
      [
        "32gg",
        "#"
      ],
      [
        " 8A",
        "- "
      ],
      [
        "8ff",
        "nL"
      ],
      [
        "2AA",
        " 2A"
      ],
      [
        "16GG",
        "-"
      ],
      [
        "16E",
        "EE"
      ],
      [
        "8fL ",
        "8ff"
      ],
      [
        "4.e",
        " 4.g"
      ],
      [
        "8a-",
        "]L"
      ],
      [
        "12dd",
        "(L"
      ],
      [
        "4dd",
        "d-"
      ],
      [
        "Jk ",
        "16c"
      ],
      [
        "2B",
        " 2d"
      ],
      [
        "2ff",
        "]"
      ],
      [
        "16qq",
        "ee"
      ],
      [
        "8ee-",
        "]L"
      ],
      [
        "32gg",
        "JJJ"
      ],
      [
        "# 4",
        "g#"
      ],
      [
        "2F",
        " 2c"
      ],
      [
        "8E",
        "]"
      ],
      [
        "4D",
        "("
      ],
      [
        "16eee-",
        "LL"
      ],
      [
        "16G",
        "-LL"
      ],
      [
        "1AA",
        "-"
      ],
      [
        "8d",
        " "
      ],
      [
        "16G",
        "# "
      ],
      [
        " 1",
        "B-"
      ],
      [
        "8C",
        "L 8G"
      ],
      [
        "8ee",
        "nJ"
      ],
      [
        "8ff#",
        "]L"
      ],
      [
        " 4.",
        "ee-"
      ],
      [
        "24ee",
        "LL"
      ],
      [
        "8aa",
        "#J"
      ],
      [
        "16gg",
        "-LL"
      ],
      [
        "32dd",
        "LLL"
      ],
      [
        "16g",
        "Jk "
      ],
      [
        "4aa",
        "#"
      ],
      [
        "8FF",
        "L 8F"
      ],
      [
        "12",
        "8f"
      ],
      [
        "8.GG",
        "L"
      ],
      [
        "4c",
        " 4a-"
      ],
      [
        "8FJ ",
        "8A"
      ],
      [
        "4D 4F#",
        " 4A"
      ],
      [
        "8d",
        "("
      ],
      [
        "8F",
        "]"
      ],
      [
        "32C",
        "#"
      ],
      [
        "8G 8B",
        " 8d"
      ],
      [
        "8f",
        " 8gg"
      ],
      [
        "16bb-",
        "Jk"
      ],
      [
        "16b-",
        "(LL"
      ],
      [
        "8GJ ",
        "8B"
      ],
      [
        "2BB",
        "B"
      ],
      [
        "6",
        "e-"
      ],
      [
        "6",
        "B-"
      ],
      [
        "16A",
        "J"
      ],
      [
        "8dd",
        " 8gg"
      ],
      [
        "16ddd",
        "#"
      ],
      [
        "8dd",
        "n"
      ],
      [
        "4a",
        "aa"
      ],
      [
        "32g",
        "JJJ"
      ],
      [
        "16A-",
        "Jk"
      ],
      [
        "1E",
        "E-"
      ],
      [
        "16B-",
        "J"
      ],
      [
        "8c",
        " 8g"
      ],
      [
        "8.ccc",
        "L"
      ],
      [
        "8b",
        "q"
      ],
      [
        "16A",
        "- "
      ],
      [
        "4AAA",
        "- 4"
      ],
      [
        "8EE",
        "-L "
      ],
      [
        " ",
        "8.g"
      ],
      [
        "16a",
        ")"
      ],
      [
        "16cc",
        "]LL"
      ],
      [
        "4C",
        " 4B-"
      ],
      [
        "8e",
        "nJ"
      ],
      [
        "8C",
        "L 8c"
      ],
      [
        "8aa",
        "["
      ],
      [
        "4ee-",
        "["
      ],
      [
        " 2",
        "bb"
      ],
      [
        "32dd",
        "-"
      ],
      [
        "32a",
        "LLL"
      ],
      [
        "12D",
        "L"
      ],
      [
        "16A",
        "#JJ"
      ],
      [
[...]
